[PAD]
[UNK]
[CLS]
[SEP]
[MASK]
!
"
$
&
'
*
+
,
-
.
/
0
1
2
3
4
5
6
7
8
9
:
;
=
@
A
B
C
D
E
F
G
H
I
J
K
L
M
N
O
P
Q
R
S
T
U
V
W
X
Y
Z
_
`
a
b
c
d
e
f
g
h
i
j
k
l
m
n
o
p
q
r
s
t
u
v
w
x
y
z
|
##a
##0
##7
##d
##8
##b
##3
##6
##4
##1
##5
##9
##e
##c
##2
##A
##u
##f
##E
##I
##M
##B
##D
##r
##F
##T
##J
##g
##U
##m
##O
##k
##w
##i
##n
##h
##z
##L
##N
##C
##p
##K
##s
##j
##t
##V
##o
##v
##G
##y
##x
##R
##Q
##H
##W
##P
##Z
##q
##S
##l
##Y
##"
##_
##X
##'
##`
##/
##&
##,
##.
##-
##|
##00
31
##01
000
69
##20
##72
0000
172
##03
01
##50
00
##es
##on
##30
##54
20
##80
54
##rt
501
##65
##31
65
##cp
to
of
dh
dhcp
##2f
##ea
28
##3a
0a
##74
04
32
0d
2f
203
0101
##0a
3a
25
67
00d
##si
##cl
##sion
##ession
session
li
ph
php
us
##ean
lib
usr
##clean
sessionclean
##0d
##ou
re
##ort
--
et
##ti
0d0a
##ec
204
##61
##ac
##2e
##000
03
010
2032
##63
5010
2e
##oo
61
48
roo
root
&&
##md
cmd
040
313
##art
##ly
##4b
##62
##est
18
##uest
##quest
##re
##request
63
##nd
##al
3230
##om
on
port
##rom
from
74
##id
##ne
sec
in
##ack
0x
##ond
##ound
bound
xid
##wal
##h0
dhcprequest
dhcpack
rene
eth0
second
renewal
seconds
50
##70
##69
004
##ad
##25
db
030
05
312e
0a4
5450
ac
4854
5454
502f
2f31
801
##c5
##75
303
da
##de
3a20
0002
##204
00db
0204
0103
0402
0104
0303
##6f
30
1800
38
##0b
##lo
##ow
##own
st
##tiv
activ
start
##pt
##iti
##ily
daily
apt
activiti
activities
down
##load
download
080
##23
##6e
##2c
4b
##64
5018
11
##ed
3120
4f
45
75
44
##ff
3020
00d3
41
653a
##220
cd
##67
34
##2d
##2a
##7f
23
02
2e31
2c
##32
##b4
##73
6e
3138
##fe
12
0x25
##de0b
0x25de0b
0x25de0bc5
70
1000
57
##d4
5011
##c2
474
0001
2a
64
5420
d3
4554
4745
202f
b4
2031
10
46
0307
0201
2301
0423
6903
1269
8012
##57
08
##68
3030
##34
2048
6174
4f4b
7465
4461
0a44
2c20
204f
4b0d
80
0x6f
0a41
4163
6363
6365
##bb
13
6570
080a
##24
0108
7074
8018
2e30
##our
##un
cr
cron
rep
run
report
hour
part
etc
hourly
parts
4c
##in
##ing
##33
3820
8000
2046
4665
##b00
6562
6220
##627
##fe2
##6c
2f20
300
7fe2
1627
..
...
starting
started
##35
##400
##b4b
300d
##070
1100
0x6fb4b
0x6fb4b070
##77
0080
3031
##cc
0048
0047
##c00
05b4
0405
b401
80c2
4a
35
##f5
##f4
##95
##3b
100
0a0d
##900
0801
##bd
0805
1008
3134
##3f
##ba
##6d
##94
##800
4d
##a2
##78
ff
##ce
e2
##14
##c8
3a31
24
6564
5765
2057
642c
##92
##b1
##a1
##cd
##500
##66
0f
##3d
##e00
1373
##700
3231
2d
##71
##6b
##60
##55
##91
2d4
##38
##98
169
##e4
##6a
##9d
0a00
##7b
742d
##fff
##90
##84
##f1
##7e
743a
##58
##9a
##9e
3d
343a
##7d
##9f
##c0
##c4
383a
68
##9b
c8
33
656e
6f
1697
##28
##7a
##cf
##b5
ffff
##2ff
2054
ed
##c1
##21
1080
1880
##200
0501
616e
6765
##e1
6167
4c61
6e67
6775
7561
107f
6e0d
c2ff
2a0d
202a
2d4c
2f2a
2065
0305
2a2f
117f
##b8
##a4
##ef
ad
##e0
73
1400
77
2000
b1
##e8
##51
51
14
f1
58
##600
##7c
6d
##9c
##bf
5014
a25
##950
##93
1d
3f
##650
7565
0308
c220
5475
652c
004a
21
##808
##b0
##53
##5c
##5a
1808
71
##59
##e50
a257
##a00
##b50
5f
d1
8d
##ca
##be
##5f
##0f
##79
##76
##5d
##750
91
81
c1
a1
##a8
e1
ef
d4
##c50
5d
bd
##e2
##99
78
##37
dd
9d
7d
d8
##250
fd
a4
84
94
e4
d30
f4
1f
##3e
c4
##bc
b8
##af
98
37
##96
##52
a8
f8
88
##b2
eb00
cf
5c00
e8
##a50
39
##04
db1
##e6
##36
##3c
af
bb
3420
2f3f
bf
9f
##300
7f
8f
df
##97
310d
36
bbd
##aa
##ee
168
##550
72
3a32
3a33
cc
1c
##08
ea
4e
##56
##39
##22
09
001
3a34
##350
5a
##09
##5e
##625
##75f
##050
6172
##5b
##ab
6c00
ea1
cce
3ba
ade
095
1c5
0100
##d0
##2b
0x6f625
0x6f62575f
f500
1728
55
6c
##3ad
6a
62
##31c
6b
##cb
##26
##eb
##29
d0
##a0
##19
##1d
534
7e
4d61
0aa2
0abb
7220
204d
c8f5
##ae
59
e800
7b
5900
##db
d2
db0d
##a9
e6
2e32
49
##f7
de
##27
ce
ba
0c
##dc
333
aa
9a
3135
##f3
8a
fa
f400
99
##81
535
##b9
7a
1a
##8b
ca
6500
##47
##8d
ae00
##c3
##17
##8c
##c6
19
##nt
##c7
##c9
0e
##8f
##48
##8e
##82
##8a
5e
##83
be
##89
ae
##88
1b00
3200
##87
66
6300
##85
##86
5800
3137
ab
3520
fe
##15
03cc
ee
9e
1e
##a5
79
43
##da
53
3d4
8e
##a7
3e
b0
##b7
##b3
##b6
##a6
dc
d5
16
60
5500
5b
##fc
90
f0
c0
a0
3a35
2b
40
fc
eb
9b
fb
cb
1900
3f4
b9
a5
3b
##a3
0b
8b
1b
e0
bc
5c
d32
##d7
##1e
b5
##1f
c5
776c
##02
3a30
8c
##d3
95
7c
9c
2400
3c
dbc8
ea1b
db77
ec
dbad
db24
0f63
db09
adeb
cceb
245c
0d32
095c
3bae
1c58
db3b
85
db1c
dbcc
db0f
15
dbea
07
##d1
##d5
6100
##df
e5
3bb
##dd
##d2
89
##d6
d9
##d9
29
a9
004c
f5
##e5
004d
##e7
003
c9
e9
##11
##fb
##f2
##e9
f9
##d8
##e3
42
##ent
##f6
3220
##f0
##f9
52
3f5
##f8
0003
##fd
5348
##fa
5353
372
##13
00e6
322e
a3
93
d30d
d31
c3
192
##10
##1b
##18
83
47
##1a
##12
##1c
##16
030d
b3
##747
f700
03ea
9200
03ad
0300
6800
e3
033b
76
0309
031c
030f
0324
f3
0377
##42
353a
##45
##43
##TP
6f00
373a
004b
363a
17
##46
##ient
82
a2
##41
372e
22
f2
92
##4f
##4a
##44
c2
##4d
##4e
##th
##4c
##49
200
ab00
b2
2f00
ac00
6000
1d00
6900
d7
96
323a
333a
a7
##06
##05
3b00
##ET
b700
##0c
b7
##07
97
27
##0e
87
f7
e7
c7
7500
HT
HTTP
GET
3136
3438
178
26
ht
py
##thon
python
##ml
##requests
html
pythonrequests
56
3620
313a
0acd
3320
00f1
3720
3920
756e
##80d
##6db
7475
6275
6e74
302d
482d
2d32
d377
d3cc
d30f
d3ad
d31c
d3ea
d33b
d324
3133
d309
3132
7769
cce8
ade8
3bab
ea18
0d2f
0f60
2459
1c55
0959
##0b5
e661
4d4
1374
6119
1684
9000
6875
554
5468
##il
752c
00d2
e24
454
494
1787
0x55
##b5e0
0x55b5e0
0x55b5e058
e2c
e2d
e2f
4e4
ba00
7800
0d3b
ff00
0a48
ea24
584
ccf4
00e2
7374
adf4
3e00
c200
424
574
6f73
3bb7
486f
0965
6400
2700
1300
1c61
464
d900
564
514
524
382e
0f6c
434
594
2465
##lient
e2a
##40
##680
7775
e2e
e25
3235
703
3139
380d
0aef
3131
054
2d45
0x6db
##0b5ec
0x6db0b5ec
1699
00ed
0200
1f00
f300
1e00
1700
dc00
a900
2900
2d00
e23
##778
1500
5a4
##os
e20
10d
##oc
##ail
130
7b1
##666
1685
d0a
##cf7
edc8
d78
6f5
##pe
201
d6
##a27
3535
3531
##le
4c5
a6
3f55
06
##c04
##324
050
db90
b6
mail
86
0013
565
c6
f6
##ul
dbdb
0c0
575
525
425
3c0
5a00
0096
6669
##et
net
spe
##lab
##edlab
speedlab
client
456e
0007
7778
007e
000c
465
00d7
475
##789
d092
db10
0f6f
1fff
db7b
ccf7
3bba
2468
ea27
adf7
0d03
10d9
db3f
edc2
2803
dbb1
db28
7b13
db1f
b192
0968
1c64
0d3e
130a
db13
dbd0
dbed
495
435
ff4
##63d
6469
##er
595
7373
555
fff
7368
1747
6e53
7562
7065
6532
4f70
7532
0a14
5562
7665
7032
7276
7572
d33f
6965
3475
d3d0
d37b
6375
3270
d3ed
d310
d3a
004e
d313
d3b1
2d34
d328
2d4f
3f6f
5f37
9663
485f
cc0a
d320
752d
##73d
2055
010c
392d
656c
0117
6c6c
6966
6666
6865
0050
2d68
652d
7273
682d
7361
7261
666e
##client
##ulclient
616d
0301
b1ac
d0ac
eddc
1324
7e64
033c
0773
302e
0d1d
7061
10f3
7b2d
2d72
d78d
6d69
281d
2019
6b6f
##23d
696b
0a15
8d66
0414
0c0a
6429
64a9
d261
7c04
e664
027c
5f32
6102
6f5f
2d70
393a
214
##61e
071
ff5
714
ch
##eck
##b47
264
3d50
303a
3f50
##onv
nonv
nonvulclient
9964
ffe
0012
##c47
check
##33d
##548
##nk
##mp
##547
##ies
##_s
pos
##ock
sy
##ers
sn
##ding
##ount
se
count
request
##_t
send
coo
fl
tcp
##ble
##kies
##sible
##ooding
19789
996474
##_sock
possible
syn
snmp
counters
request_sock
##_tcp
sending
cookies
flooding
request_sock_tcp
bbd8
bbcd
##648
bbd1
503
bbd5
bbd0
##la
##748
bbd2
bbd7
bbd6
bbd3
bbce
6e63
0010
bbd4
bbcf
##ea2
4950
0e00
4d50
4b50
4e00
e250
e200
ee00
##3a2
4350
4650
##b48
4450
6e00
##ost
##host
##d47
##1E
4250
ce00
##647
4550
5350
5550
5850
4750
4c50
##nown
##e48
4e50
5250
##347
unk
unknown
5950
5650
0400
4850
4f50
0500
2e00
4150
5150
##e47
000e
loc
local
8e00
localhost
4a50
0550
5050
5750
5a50
##lay
3232
##614
##c48
294
6f4
00fc
##247
3233
e500
3430
6600
d300
0150
000d
0600
8200
##2a2
e600
3330
8600
3234
784
2600
9a00
0014
##4bb
0800
3237
a500
3334
6a4
3236
7a00
d350
be00
af00
7000
b600
2650
9600
3436
ff50
3432
3238
6a50
3335
f750
3a00
4f00
a600
b500
3431
8a00
3331
fa00
cd50
ef00
3336
7850
##232
6550
9e00
3435
1a00
5e00
3338
8500
3333
d650
7200
3434
f100
1450
a350
6700
cf00
7550
6f50
794
3250
b100
3332
ea00
3433
f200
4600
7300
6d50
a950
7150
6850
9f50
aa00
9d50
cc00
5000
6350
0f00
3337
7e00
b800
2100
3339
e550
7050
2200
1350
684
3239
ed50
d750
4c00
9400
9100
fe00
##676
7100
3050
f150
265
da00
cd00
1f50
b200
8250
6250
7950
ca00
5200
0350
2a00
8300
4500
3437
a650
0d00
6d00
7d00
1600
7600
2450
8f00
1c00
b900
3850
4050
8700
2500
4a00
4d00
6a00
d000
f600
f000
7400
3450
cf50
fd00
e950
4000
cc50
0250
5100
c050
e350
a800
ce50
d800
c600
de00
3e50
e650
1200
d950
c500
a750
ee50
3600
7350
8b50
9700
a200
e100
6050
3300
c000
fa50
0650
ec50
6200
d700
9050
8900
7250
6450
2d50
3a50
d600
bb50
ea50
3350
2c50
7e50
9550
0a50
9a50
5300
6b00
2300
b050
d200
0c00
6e50
ad00
3750
e450
f950
e700
b150
8a50
4100
f350
de50
0f50
9850
1a50
3950
6950
4b00
6b50
ab50
e400
b400
fb50
0b00
a300
0b50
da50
ae50
b650
d850
4200
2f50
ec00
5b00
e300
c400
bf00
2b50
3650
5f50
5400
8800
5600
be50
8100
f800
3b50
b300
1050
3d00
dd00
9750
e850
2250
ba50
7450
e900
2b00
2a50
df00
cb00
df50
7700
0900
9500
fc50
1e50
f550
7f50
a250
3550
3100
b550
6750
0950
8950
9250
5d00
d500
8c00
5f00
0700
1650
0850
9f00
8150
bd00
c250
3700
2550
d250
5d50
3500
f850
9800
5c50
8750
eb50
b000
00dc
d400
4400
a050
fc00
4700
a400
c550
6650
ac50
af50
ed00
f450
d050
3c00
7c00
a000
fb00
f650
c650
e050
9c50
9900
1d50
0c50
9650
9450
dd50
9150
db00
e750
1950
a700
2350
bf50
9300
c750
7b00
2950
3900
8b00
6150
1850
db50
dc50
7f00
4900
7900
7d50
c300
7650
d550
c700
c350
a850
e150
7a50
8650
1b50
6c50
7b50
2800
9b50
e000
1250
9350
8e50
cb50
a450
d150
c100
b850
8400
0450
2050
0d50
4800
d450
bc00
9d00
8450
8f50
5700
c150
ca50
7750
ef50
c900
2750
f900
3400
8050
0e50
ad50
2150
8c50
b350
fe50
d100
aa50
3800
b750
3f00
3c50
2c00
9b00
f250
5b50
9e50
1150
9c00
1550
##626
4300
8350
bb00
c850
2e50
0750
7c50
250
8d50
3150
##bbb
8850
2850
5e50
a150
b950
c800
f050
a550
bc50
9950
b450
8d00
##ba2
c950
a100
d264
c450
fd50
3000
1c50
1750
500
724
b250
bd50
8550
##0a2
734
103
334
624
f14
4de
4e1
374
654
6d4
1801
051e
##947
##948
6573
674
774
##939
d04
##633
##log
##f47
##0bb
##671
754
354
##673
##ecd
664
##637
##632
##f48
101
##at
##679
12d
6b4
##726
da5a
##638
##635
12c
##634
1001
404
##677
##636
0028
##678
7375
client21
6c5
##ead
##6cd
d01
725
b04
##66a
665
364
14b
dbda
a258
##208
bc8
625
d03
d0d
Client
OK
081f
##a48
6c4
765
365
d14
##b53
764
0c05
##66b
con
3c08
0c06
3c07
##926
0ff
##ect
##ec0
12f
800
##a47
071f
##acd
##753
##nect
636f
4a57
d6f
4a58
061e
b14
##ea5
d84
b84
669
##us
##d48
##me
##as
cf1
4a5a
884
24b
e84
4a59
##737
d91
601
c14
f84
d00
blog
##ccd
a51
b0d
735
d7f
5ad
701
##736
d69
##6eb
##615
##ea3
##67b
984
403
212
60d
##6ee
pr
e04
dcd
pri
##639
211
FTP
##612
904
2ad
##ess
5747
814
##6e3
76f
a84
e14
a00
a01
##2a5
d24
##735
213
c04
##eae
d2d
d2e
a14
134
##ec4
##ea8
569
46f
d68
##6e1
##ved
##eaf
##734
769
##l_
sas
##ue
sasl_
##937
delay
bf1
##ea6
##c26
##622
##61a
##6e6
##62a
f6f
591
5f1
c03
80d
d4b
##ece
6a1
335
##602
4ad
a6f
##e22
##IN
##ef7
131
969
##e89
8ac
401
d21
##6e5
5c8
d51
##ecf
##616
##6e7
##6e2
##2cd
##6d3
##63e
66f
##6e8
6f1
##ec5
##624
##233
c0d
bc1
ae1
##617
##ec7
86f
##9d8
56f
b03
cff
##61d
##eab
069
77f
##6ef
16f
914
##234
e01
##802
##61b
6b1
##edb
f69
##326
568
##809
##777
604
600
##611
a5d
##738
##ecb
##610
603
aff
6ad
bff
##733
a04
e0d
##9e9
869
##73b
##6b7
##62d
##618
##623
ce1
795
##ec6
c84
0e1
96f
bad
a0d
##ecc
##61f
82d
##67d
##e07
##628
f03
36f
cad
7ad
##e26
##63b
02f
26f
##621
5e1
##63f
90d
a38
b69
##6e4
d28
803
9ad
700
b01
##ec9
3439
62d
cac
##3a9
a03
469
aad
##67a
##238
##62b
##60e
621
b91
531
6c1
##eac
##67c
##3a8
##61c
a69
668
##ea0
##6ed
##ec1
30d
f04
##ed7
##936
155
##908
5ac
50d
dc8
cc1
##ec2
##906
##eaa
5c1
a34
301
##237
721
22f
64b
538
6ac
70d
##619
d65
a24
1ad
60a
e69
##70b
##63c
##6be
d58
f0d
b00
##6d0
##6e0
903
##67e
c25
##70e
0b1
a74
##986
##ea4
d0b
fc8
##202
5b1
b2f
##e29
d5d
##235
971
##edc
##3a4
##70f
##6d9
##236
##613
f01
371
72f
34b
##6a7
d2f
##708
##6e9
bb1
a71
##806
##739
##ec8
269
9e1
c69
8e1
##edf
631
##3aa
ead
##ea9
c01
80a
##604
6ff
##70c
##6b0
##9ae
##ea7
27f
##606
##67f
##eca
##771
##909
##80f
3e1
##3a5
7e1
d71
##9a6
##608
##9f7
9ac
##ed6
74b
##9c9
##6d7
##206
##779
b6f
12e
##9f9
9ff
92f
b4b
92d
ccd
##ec3
9f1
##629
##6a3
dad
d08
fc5
##807
##73c
##9b5
c0a
62f
375
d25
d54
##9df
##62c
e4b
##9a3
##9e8
924
9a1
##98a
1ff
e03
e6f
##3a7
2b1
##9e2
c91
##6a0
7c1
##9db
471
b0a
##905
##6a5
8f1
eff
5a1
af1
d74
##6c7
##9d7
0c8
b0b
##707
d72
##90f
551
8ad
##73e
7ac
##997
231
##bf8
3530
##6d8
##982
1ac
##6d1
##6b8
##b22
7c8
##6c4
40d
bac
##6cf
731
c6f
369
a21
07f
f2f
c34
##20e
##6ce
##6dd
738
991
aa1
##804
b7f
##9f6
f34
##ea1
6cd
##989
06f
##6bf
##93e
##7af
##ed5
32f
##b26
191
##9da
##20f
fad
##3a6
dff
##6af
224
##ed9
##20a
##6a6
c51
##6d5
##902
##9b6
##e8a
82f
##7a7
e38
##ed0
52f
##9e5
##996
ab8
c21
##6c6
##6cc
##660
##9f0
##709
37f
821
94b
##ed4
##9bc
##7ab
be1
f5d
57f
778
9b1
##9bf
b31
c71
##9ee
921
eac
6c8
871
##6c3
##805
52d
##6cb
##9a9
bcd
ef1
40a
##6c8
b08
e68
ee1
##983
672
##ed2
065
768
8c1
a91
##702
291
##207
##3af
##2a3
##6da
##e85
8b1
##9fb
968
de1
##6ae
928
771
##20d
##776
1e1
##988
##9f8
##6a4
##9d2
##ed3
cde
e0a
##209
##9a8
b51
52c
##6c0
ca1
df1
901
##b06
##6aa
##904
##e04
3ff
97f
a72
c24
##bc9
##9aa
##9b0
9c8
d2c
##6b3
##6ab
e91
1f1
##9d9
171
1c1
##20b
##9ca
f2d
##9d5
##9f3
c2f
##yt
##9be
031
##985
a68
##6c9
##60f
5bb
d7d
a0a
##9fd
##6a8
##609
ec1
068
##be6
##b29
##9dc
c00
##205
##9a0
6bd
##6a9
##7a3
7ff
931
b2d
##9d6
##6b6
##999
125
42d
##60c
##e0c
eb8
7a8
##e05
608
cb1
##506
c7f
47f
02d
##93c
##9b2
fc1
b24
##80a
22d
891
421
abb
##6ca
##9fa
##509
##9dd
##9d3
##9f2
##9eb
##508
##98d
f38
##9e1
##6dc
c4b
4a61
b3d
f7f
##9b7
##e02
##50b
##9cb
c38
##9fc
82c
e65
##9d0
##3ae
##706
##90c
3c8
775
868
a28
ba1
22e
72d
b21
f51
##c2b
400
fa1
##9b3
f58
268
##bfc
e51
##efd
2ac
368
90a
##ef0
5de
##c24
##77b
f4b
491
091
70a
##eda
a2f
a7f
f24
##98f
##9b8
831
##927
##9ef
##b59
c68
dc1
##90e
##b5a
438
834
##20c
##907
##9a7
cf4
##80e
##9e6
3cd
271
5ff
##6b5
##e0f
##987
900
30a
44b
b71
##fe6
431
##b08
##beb
##7ee
##9af
##2af
##3a0
##605
84b
8b8
ebb
##239
##984
50a
8a8
##6d2
9de
f0a
##6c1
ca8
7a1
ba8
##9a4
aac
aa8
##6b9
3c1
52e
c58
e31
0c1
##be2
##3a3
##6b2
##ef6
##7b2
##e82
ab1
##203
f31
##705
2c5
93d
851
##98c
##7b5
##6df
##7a0
##9c6
225
824
8c8
c3d
3b1
8a1
##98e
##ee5
1c8
72e
##9c7
62e
b28
##704
cc8
##73f
1de
1b1
##3ac
a4b
a2d
fb8
951
e71
2bb
##2aa
##7a5
##7a8
10a
572
##80c
d64
c2e
##bc7
##9e3
##80b
##ef8
##2a7
##50e
##ca9
##9ab
02c
3032
##c27
##928
##7e0
##507
e58
f21
a31
838
e7f
##e06
33d
278
7f1
fac
4a66
##bf6
5a8
92c
8c5
##3a1
228
854
##6bc
865
##ed1
##7e7
##7e6
f65
##6d6
##3ab
##7e1
##b2b
b2e
##98b
##7bc
##7e2
221
##b0e
##c22
##7ef
338
428
528
97d
825
1a1
##9c3
a7d
##b51
a58
##efa
##bee
938
fb1
##607
9b8
c5d
272
4ac
ec5
b34
2bd
dac
cf5
e00
5bd
##7bf
fcd
c78
##ed8
##226
##505
90b
a3d
b38
##502
cdb9
##bf9
965
##9a5
##bcb
972
925
bc5
##b07
02e
1bb
3f1
9bb
fe1
ec8
##2a4
0e4
f25
##be5
331
e34
878
##e8c
##e86
22c
82e
##feb
dde
f28
391
##efc
##b0c
b68
##50d
3534
##9b9
17d
##b04
87d
330
8ff
e08
##7b6
934
4a5d
f91
9c1
b7d
3536
274
5c5
6b8
0c5
##50c
2de
c2c
##be9
##2a1
##b52
165
f0b
bbb
4a60
3538
151
7bd
8de
d55
bde
c31
072
5b8
80b
cb8
##ef3
##b0f
f7d
e54
##23c
##b5b
5cd
##2ab
##c21
a65
b5d
7de
4a5b
ae4
b78
60b
##bf7
eb1
##ef9
a2c
ccc
074
bce
83d
ede
##c28
##7eb
9cd
##e8f
##b05
6ba
cc5
##bfd
3532
##9d1
6a8
##953
##7b0
##7be
f00
1b8
##bfa
##504
b65
##efb
##921
a55
b3b
##e0e
7cd
##7a9
##e08
e5d
53d
c74
f68
4a62
874
bf4
##2a8
##e09
##b09
17f
##b56
##7a6
8cd
##bc6
##7e5
9ce
a2e
8bd
791
4a5c
##e27
73b
c2d
##b5f
##7a4
3b8
##922
##929
72c
##2ae
##c29
c72
##9e0
##b5c
##bc3
f74
a64
f72
a0b
##50f
43b
ecd
##2a9
##92b
##7b8
##7e8
##be7
##eee
07d
c0b
fbb
##7ae
3c5
7bb
6cc
##be3
##cfa
bb4
f2c
##981
##7b9
##b5d
42e
9f5
fa8
##bf2
##77d
47d
958
##fef
##cae
##e87
##ee3
92e
##e8b
##e81
6de
cbd
##23b
87f
##9e7
e7d
6bb
974
##eeb
5b4
f71
##7e3
628
##ee7
0bd
5f5
978
c7d
##23f
174
254
9a8
b54
bb8
e3b
b58
e72
##50a
##2a6
2b8
ce4
8b4
f54
4a64
##e8e
c54
##bfb
fbd
1f5
95d
5cc
##b5e
##edd
4a63
8bb
##7aa
521
f2e
42f
3533
77d
5ba
83b
##23e
4a5e
62c
##e83
530
40b
ea8
728
b72
a78
a54
##fe7
7c5
4a69
##7e9
ebd
73d
abd
b2c
##fe9
3130
33b
472
908
3034
c3b
1f4
1d4
3bd
27d
8ce
fba
0bb
a08
e78
##fe5
15d
158
85d
078
##b27
e3d
##e88
9c4
a30
10b
730
f78
##bf0
##bf3
##7c7
ba4
c94
408
f3d
##e2b
935
9f4
f55
##ee9
##b02
f94
dc5
42c
1cd
7ba
dc64
772
3de
4120
954
3537
fde
##77c
c65
0cd
1a8
7cc
de4
##fe0
##cf2
164
c08
b25
4a5f
fc4
##fe4
5c4
000f
fcc
5f4
37d
7c4
dce
230
b74
##ef2
478
##7b7
43d
872
##cf9
c28
##fe1
b64
828
##fee
858
9bd
df5
af5
4a67
##e8d
2ba
93b
0025
af4
394
##cf6
5ce
1bd
9a4
9747
bd4
fce
##cf0
4a65
##ca7
d94
064
##7b3
c64
d747
855
##cfb
##7c3
154
7b8
##cf8
558
3038
e55
a75
a3b
3036
025
bba
##caa
e0b
##2a0
##7cb
##eb6
ecc
1ce
##cab
b35
c35
7b4
0026
5d4
a94
9c5
dc4
55d
8ba
70b
##797
9cc
e74
cba
ec4
f35
##77a
5e4
##7ca
8f4
964
##caf
0024
53b
bcc
830
0ce
002b
002a
0029
8d4
dcc
e64
##fe8
ece
6465
0b8
9ba
7564
3b4
378
cbb
6ce
fd4
0027
3037
b94
1cc
dd4
##321
9d4
835
ab4
3033
##ca3
0b4
3c4
2b4
##eb7
1c4
ef5
9e4
7a4
b30
0f4
ea4
##7c9
1ba
##77e
##ca8
094
f3b
cc4
0f5
1b4
630
ed4
bf5
894
##ca5
##ca0
3035
8c4
9b4
##cfc
df4
3539
c55
##cfd
eba
0cc
3e4
b55
ad4
864
8e4
f08
a35
e94
955
7e4
##ca6
a5f
##796
fa4
be4
7f5
0c4
4a68
##7c6
bc4
e35
8cc
8f5
aa4
##eb9
733
8a4
c30
fe4
3ce
e30
cdbe
7f4
a3f
b95
93f
f30
##fe3
430
930
cb4
1e4
##576
994
0ba
433
cdbb
3039
d75
0023
1a4
e3f
275
d5a
##328
##799
eb4
194
ca4
##eb3
83f
aba
ee4
7d4
cda5
fb4
ef4
d5f
##32b
##cf3
e75
3cc
##571
73f
4a6b
a5a
##a2b
875
895
##329
4a6a
4a6e
7ce
d95
f64
e95
975
60f
##578
533
##tl
##cpt
cdae
f3f
395
075
##a26
c75
295
##579
c95
a95
##327
33f
##322
53f
b3f
995
c3f
d0f
##af2
##22b
##57e
cda6
4a6f
##out
##2b9
195
about
##aaa
43f
95f
c5a
##2b7
c5f
e5a
e280
##aa3
cdbf
##c09
cda7
5780
f95
##577
f75
##a28
b75
##c0f
15a
##526
175
4a56
##2b6
##aae
##a29
##af7
##aab
##c08
##a21
85a
##57a
##iles
85f
b5f
##c0e
##aa9
##xt
files
f5a
e5f
test
txt
##c06
4a6c
##c0c
##afd
##537
f5f
##aa7
##aa0
b0f
##a22
##c02
##aa5
c0f
##aa6
##afb
##227
##2b3
a0f
4a6d
##af3
##afc
0580
##af9
##222
##57d
##57b
15f
##og
##5b6
##c07
##af6
##afa
##af8
55a
90f
##af0
55f
95a
##57c
f0f
40f
b5a
##5b7
##599
a33
##53c
e0f
##5b9
##c05
##5c7
b33
##cb7
##597
##536
##5F
##229
933
833
##53e
##5c3
cdbc
3d47
ff80
##cb3
##5eb
4c3d
##5e3
##539
##5b3
##cb9
cdaf
##5c6
##529
##ogin
##5e9
##5e7
##5cb
##5e5
##522
##596
cdbd
00dd
##AA
##5c9
3d53
4d3d
413d
0180
4e3d
##5ca
3d55
##527
##52b
3d43
453d
3d48
433d
cdba
3d44
d380
3d57
3d4d
00e5
3d51
4b3d
##cb6
e33
f33
583d
553d
002c
c33
573d
3d59
3d52
4a3d
##ab9
3d41
543d
483d
##A0
523d
3f48
6f64
4f3d
423d
3d42
3d4a
443d
463d
593d
connect
3d4c
3f47
533d
3d4e
493d
473d
##3ee
3d46
3d45
3d56
##3eb
3d4f
3d49
563d
513d
##3e5
3d54
a680
3f54
0022
##614A0
3f4b
503d
##na
##3e6
##user
3d58
##name
4b80
113
d080
##ab3
4445
111
3f4c
112
5880
3f49
3f42
##ab7
0280
##1E5F
3f59
##3c9
3f58
##3cb
##3c6
4c80
3f53
3d4b
cd80
3f44
##3e9
##ry
f180
##3e3
##3c7
b680
3f56
3f4d
3f52
5a80
3f45
1480
3f51
e880
c680
d580
3f4f
b580
e480
3f4e
ce80
cont
ind
##ex
##ab6
1e80
3f4a
index
cour
gal
##cing
##ses
##tail
##_de
5380
##lery
blog_de
pricing
courses
gallery
##tails
blog_details
ele
##ment
##act
contact
element
elements
6a80
7e80
7a80
0b80
ca80
6b80
8080
b380
##3e7
3f43
3f80
bd80
2a80
3f46
a780
3f57
8d80
##od
9280
ope
b780
0680
3780
0073
##ned
opened
di
d480
6c80
2480
ed80
##ER
5d80
clo
##sed
6480
d180
closed
0380
su
1c80
2280
4d80
cf80
8980
US
USER
0e80
fe80
3880
4f80
d980
Login
##ful
6e80
##ccess
success
successful
4880
6080
fb80
696e
6580
0780
9f80
4380
8b80
00a0
fd80
cb80
9680
7280
ae80
5b80
8280
##ag
4180
c480
5e80
d780
3380
6680
1380
ad80
6f80
7d80
8480
5280
f780
df80
9b80
##201
##LA
b880
c780
0880
4a80
ba80
6880
3f41
c380
9380
1780
1280
8e80
0480
2380
ab80
9080
7780
6180
7980
##ate
si
e380
c280
2880
ef80
##sc
3d80
##ae9
6280
5480
bb80
3280
5580
##a05
1680
##onnect
2580
f880
##sconnect
##mo
7b80
##moved
do
##tp
3080
8580
disconnect
mess
##ze
##eco
6380
priv
##age
message
a280
stat
a380
status
Sa
##mtp
##veco
ea80
##tlmtp
size
doveco
private
dovecotlmtp
PLA
ds
nr
active
##thod
##method
sasl_user
sasl_method
PLAIN
sasl_username
que
20201
relay
removed
e680
delays
messageid
dsn
nrcpt
queue
GA
4580
aa80
f680
sent
##kw
a480
Saved
3580
3e80
8c80
a180
1a80
c580
6d80
9980
f380
b980
c880
1f80
##3c3
a080
1980
a580
ec80
0c80
5680
b480
5980
d280
fc80
bc80
2980
8680
2b80
e080
4480
c180
dc80
2780
7880
8a80
4080
9580
eb80
9a80
2f80
9d80
ee80
d880
e580
2680
4780
7580
ac80
7f80
2080
9780
dd80
cc80
6980
9880
8f80
5080
0980
2e80
5320
a880
3680
0a80
b280
8780
2d80
bf80
7480
e780
9180
da80
db80
LO
##GIN
LOGIN
1d80
1b80
7080
af80
4680
5f80
3b80
8180
f280
3480
e980
4c20
4420
7c80
##a0c
7180
2c80
be80
f480
0053
0d80
f980
1180
de80
##a0e
3180
6780
fa80
7680
##AD
4e80
5c80
4280
4980
3a80
c080
9480
7380
3c80
5720
8380
b180
d680
5180
cdb0
b080
a980
##ae7
8880
1580
4920
e180
c980
3980
0f80
2180
##ae5
9e80
6e65
00a2
3d5a
9c80
4a20
4d20
f580
f080
4e20
00bb
00de
##a02
4446
5820
##a06
0006
4b20
4320
5020
5920
0004
4820
0059
5620
5520
##ae3
5220
6973
##a07
4220
5120
6f6f
00e9
0065
4720
0057
0008
003b
0060
0005
005c
0051
005f
4520
4465
bbcc
004f
5a3d
0041
nonvulclient2
000b
00ec
nonvulclient3
nonvulclient1
0054
1762
4620
nonvulclient4
0011
00f4
00d5
0016
0063
0064
005e
7420
001d
byt
##byt
##OAD
##LOAD
##Kbyt
bytes
##Kbyte
000a
0087
5a20
006c
001c
0017
0037
0018
00be
0052
0070
0021
005d
0074
0020
009c
00da
0056
005b
009f
00d6
00e4
007b
00b6
0094
00c3
0046
0067
009a
0030
00cd
00cf
0066
0035
0093
746f
00ab
00a7
0081
00fb
002d
006a
6361
0076
0042
00b9
008c
001b
003c
0079
6520
0049
0071
008f
00f2
00a8
00a3
4f20
00ca
007d
008b
0036
00a9
0055
0040
0034
003f
00f5
0045
001e
00e1
00af
0068
00bd
00c0
0043
00f3
00df
00ea
00c5
00c7
009d
0075
00b8
006e
00cc
7320
0044
0082
0009
0077
0031
00e3
005a
0033
0069
006b
0084
00d0
0039
0097
001f
003a
003d
003e
00f6
0062
00bc
0058
00cb
00ac
00e7
00d8
0086
00b7
001a
00bf
00d4
006d
00aa
00c6
0095
00ef
00ba
0072
007a
00f0
002f
00a5
00b2
00ad
00c9
00e8
009e
00c2
00a6
00fe
00ce
00f7
00ff
00c4
008d
007f
00b1
0089
0015
00b4
2044
00c1
00a4
00eb
0090
0099
3f5a
0098
00c8
00f8
00e0
00a1
6f2e
0019
007c
2074
00d1
00d9
002e
00f9
0078
0091
2066
008e
0038
00b5
0088
0061
00ee
0085
2063
0083
757e
0092
00fa
00fd
00b0
2e20
009b
006f
00ae
2069
0032
##232E
5347
##it
00b3
008a
##uth
client11
7144
3242
4170
3161
client212
client213
##214
client214
bbd9
3527
4939
5741
6913
auth
4a70
5447
4b48
4c48
2942
5657
4456
4d48
4a48
vulclient
4d47
5248
57bb
4b47
e2bb
1458
8010
e247
4e48
5148
5848
5048
4c47
4f53
4648
5002
5774
576f
3162
5349
7145
5775
4448
4c56
5794
3243
1448
5947
4148
5772
5847
4948
4548
4171
e248
4d56
576e
4d53
5770
4c4e
5544
e2a2
4e43
4f48
4947
5648
4a47
5448
4b54
4348
5782
5777
4748
4c54
4d58
4247
504f
5548
4b4a
4b53
4447
5778
5354
4848
4e47
4c52
4b49
4c53
576c
4d43
5047
576d
4347
5776
4747
57a7
4248
579b
4d51
57ae
4d49
57a4
4e42
4d54
4b55
3528
5771
5853
##6021
6914
5647
5748
4d4f
4b4c
4547
4f47
4d4e
5547
4b45
5449
4153
4647
4c4f
5054
##6021B
4d41
4d42
4c45
4b51
4d4d
4d45
57be
4b4b
4d4c
4b4f
5a47
4d4a
5546
4c42
4c49
577f
5948
4b42
5795
4c43
e2b9
574c
5247
4b43
e29f
5773
577d
4d4b
4553
4c58
##1E1E5F
4d55
5147
4e44
4b4d
4e45
4a53
2943
57b4
5453
e2d7
424c
4b4e
e261
4953
e237
5858
4b58
577a
4c55
5757
5443
4b52
5792
5779
4e41
4253
4453
e218
5753
4a4e
584e
4b41
##um
4147
5541
4649
##Uum
##Okw
494f
##UumOkw
e2dc
57a2
4e53
514e
4b59
e2c8
4351
4c51
577c
4d44
e209
4f55
e231
e21a
e235
e23c
464a
4252
5653
e266
5953
4c44
e2b0
e2b7
e253
5798
4c57
4b46
4d57
434d
4c4b
e2f5
4c4c
4141
e26a
e2cd
e2be
4759
5787
e241
574d
4853
5797
5756
e2ca
e2d5
4753
4353
4143
57b7
434b
e2c3
4a46
e236
584a
5656
4842
5053
e282
5151
5044
5153
4f4d
5942
578d
4c4a
4940
e2ee
577b
57a9
4d59
5955
e2ba
e278
4346
474a
4a44
4c46
4e51
5755
6548
##OW
4849
##OWN
e29d
5342
5446
4159
e260
4754
e2ff
e23a
5843
4847
e2c5
e2fb
4349
e25b
578c
4a4b
4e58
5341
e238
e212
e2eb
e25f
5a48
4142
e265
4946
e2a4
e26e
4b57
4c4d
e276
4f57
4152
4a55
494d
577e
4449
cda8
514a
0547
5255
5784
4d52
e206
e297
5854
5752
57ac
464d
579d
5945
e232
5783
e246
e2cb
e2c9
e2fa
e2fd
5557
e2df
0548
4356
4a52
444f
4149
e271
e28f
5549
4249
4242
444b
554e
4545
4949
e2e7
578a
e27b
5545
e24c
4244
5644
e2ab
5455
4455
5957
e257
5555
4c41
5543
5751
4d46
5758
e24e
5558
e205
4255
4843
e27d
e296
e217
5345
4246
4951
5553
5049
4443
4e57
e27c
e24a
4245
454a
4241
4c59
504a
e2fe
5241
444c
e224
554d
484b
4b56
5849
e2e2
4a41
564b
e2c7
e2f3
594c
e2e3
4546
4b44
5651
57ce
4a54
e2a0
5652
4758
414b
e293
5159
4941
564c
5253
5452
5056
5754
514b
5554
5351
5058
57b1
e28b
5842
5745
e25d
504e
4f4e
4e59
e2f6
5641
5645
4f46
e22d
e292
e243
e249
e2d2
e252
5655
4655
e26c
4543
e2d4
e233
e20c
4f4f
e210
554f
e2fc
5841
e2a7
4f58
4f51
e213
4254
5643
e2e4
5258
4653
4844
4559
e27f
e2e6
e2e9
e208
4256
e2bc
5144
e2ef
5257
544a
e2f0
4b5a
414f
57ab
e214
4e4d
e25e
e21f
534e
4954
4345
5759
4157
e204
5856
5243
4846
e222
e21b
4357
494c
4243
e2a1
e227
4e4c
e244
4442
e2a6
4841
e2b1
e290
454c
524a
e2af
e234
4355
e2b3
e2c1
e2d1
5252
4f54
4146
5790
4a4a
5245
5552
4f42
4957
5244
4257
##E1E5F
4444
4a42
e274
e28c
584c
574a
524f
504d
e22c
454d
524d
5943
474e
474f
5789
4a49
e2de
4942
4642
5146
5958
4156
579e
e22b
e289
584b
e2c6
e2d0
e2a3
4752
e2b4
4452
4743
584f
5649
e220
4451
4742
e230
e226
e2d6
4c5a
484e
e24d
e2d3
4952
4441
464b
e2db
e207
4651
544b
4d5a
e272
e294
e29a
5156
4a51
e24b
e2c0
e25a
57b5
4746
e29b
e2d9
5145
e23d
5857
5542
5744
5642
4552
e221
4945
e2f7
e201
e262
e225
e29c
4544
5143
5251
5959
e268
e254
e279
4259
##AAUumOkw
e2bd
e2c4
464f
5057
5796
e281
5043
e21c
5155
5359
e2e8
e2b5
5254
e2cf
e2da
e2f2
584d
424f
5559
5055
444e
e291
5954
5949
414a
5855
e2f9
4f43
6c69
e286
4e55
524b
554a
4541
564d
e20e
05a2
e228
e202
e20f
4959
5551
5356
e2f4
544f
4454
e295
454b
5149
5941
5659
4f52
4a43
424b
4e46
e2e5
e28a
4f41
4556
e2ac
e2b8
5357
e242
e2aa
4e4e
5141
434c
e2cc
4f44
444a
e21d
5152
564f
4658
4154
e26f
e21e
4f45
4459
57c5
5799
4956
5041
e24f
e2c2
4644
5256
4e4b
e240
5846
4458
5859
5346
e2a5
4958
5458
5654
434a
4654
e267
434f
5946
594f
579a
4549
e2f8
4e49
e29e
e211
4943
5845
4341
5259
4f4c
e2b6
5451
57a0
574e
4955
4352
544d
504b
414e
e264
574b
4344
4f59
e256
4145
5158
e2ae
e23f
57af
454e
4641
4258
5051
e23e
4251
5457
5445
594b
5456
5042
474c
4757
5046
e2d8
424d
4643
594a
4555
e288
5a53
544e
414c
57a1
e229
5442
5785
494a
5142
5249
e203
4852
5052
e298
e2a9
4358
4a4f
e270
e215
5358
4354
e251
57d1
e28e
4342
e25c
5956
4845
484a
4f4a
e269
454f
e277
e287
5246
5786
4741
4e4a
484c
5045
e275
4e54
464c
578b
e27a
534c
5441
e22a
5355
4a4c
574f
484d
137c
e299
534f
4359
5459
534d
e216
5242
1551
e219
514d
e2ec
534b
e2ce
e2dd
5746
05bb
e2f1
e2e1
4656
e22f
4151
494b
4a4d
e2a8
514c
e2ed
e20b
4144
e263
4944
564a
524c
4343
e2ea
e26b
424a
5646
4645
564e
4858
5352
4551
4155
57a5
e273
4e56
05a0
5556
4857
e259
57a3
e2ad
554c
5444
4158
4755
4859
484f
4457
414d
4744
5951
5a54
4e4f
594e
e239
544c
e22e
5157
514f
4749
e284
5a57
e23b
e20a
e26d
5154
4e52
5844
4657
534a
444d
5944
474b
5851
e285
e223
4558
594d
4f56
e245
5749
4851
05cd
e2e0
554b
5852
5343
e258
##1E64
5344
##991
e2bf
524e
494e
495a
578e
e27e
e283
4855
5658
5743
5a49
578f
4856
4a45
e255
434e
505a
4751
5742
565a
5059
4f49
435a
5952
e2b2
57ca
5788
57a8
4659
57c1
0531
4f5a
474d
424e
5a5a
5a4a
5a42
57bc
4756
504c
4557
4646
4542
05ac
e28d
DE
0553
5a41
0520
5a55
575a
0220
57aa
464e
e20d
5a52
57b8
57b2
57b9
4652
1676
f347
545a
##Md
##Op
540
##MdOp
##MdOpkw
0584
05ca
57ad
5793
05dd
0502
57bf
57b0
05f4
0506
05af
0503
5a45
0564
0563
0583
05c9
579f
5a46
57d0
05c3
dat
5a4e
05c2
5a59
UP
485a
0504
DOWN
d347
585a
DOWNLOAD
##LET
DELET
UPLOAD
DELETE
57c6
57c9
bb47
425a
5a44
05fd
##021
052c
0576
515a
052d
5a4b
059f
0597
0589
0567
05e0
05bd
5a4d
5a58
0598
com
0539
5a51
0512
415a
##and
##uit
05e6
eh
##mand
059a
0518
command
053f
05c8
quit
rcpt
0574
starttl
054a
054b
20201021
data
ehlo
commands
starttls
0579
0537
052b
0519
535a
0555
058f
05da
5a43
059b
0517
05a5
0513
056c
05a7
05b3
05d6
5781
0514
0591
0522
475a
0541
055c
0536
0516
445a
0533
059d
05a4
05a6
0538
058a
05d1
05b6
05c5
0578
053d
05ae
057c
05bc
05df
05de
0554
05bf
05d2
525a
0568
054c
465a
0558
058b
0509
5004
05ce
057e
0521
0556
0587
05ef
053e
0586
05b9
05fa
05ea
05d9
0572
051a
0532
05fb
0575
050b
0573
058c
056f
0534
05ab
05be
056e
05cb
053c
05ee
055b
0535
57b3
054f
05b2
0529
05e5
05dc
052f
0528
0523
0593
050e
05cc
057a
05fc
0511
5a4c
05b0
058d
054e
055d
0515
57c7
0505
053a
056b
0507
8002
a247
055f
0510
5a4f
0585
05d4
05f2
05c6
5791
595a
052e
0577
05d5
05f3
0543
057f
0592
0588
054d
0595
0526
053b
05f6
05d0
05d3
555a
055a
055e
05c7
a547
0560
0540
ff47
05ad
579c
05f0
056a
051d
05e7
57c0
05a3
4e5a
05cf
05c1
056d
057b
05f5
2020102103
0565
0590
05e8
0530
0525
05a9
05b5
05e9
05e3
0208
0527
057d
0559
05aa
0569
05e2
0542
051b
050a
455a
05b7
05eb
0549
cdb8
059e
0544
##1E232E
4aa3
0524
05f9
052a
05b1
0546
050f
0599
05f8
0594
05c0
57cc
05ba
0508
0561
05ff
051f
57c2
05fe
0566
05b8
0581
57ba
3d70
2020111
0582
051c
57d2
0551
0596
05db
05e4
05e1
05f7
0562
1047
0545
05a8
5a56
##E232E
ffa2
ff48
050d
050c
13a2
57cd
6962
059c
058e
57b6
05ec
0557
05d7
##AAMdOpkw
05d8
12d6
0147
0571
0c47
05c4
6273
3d79
57cb
##pp
dc47
05a1
05ed
3247
3347
0552
0404
653d
d348
0570
57bd
efab
663d
client211
c247
05f1
client215
6f3d
723d
57a6
763d
3d68
363d
537
01a2
01bb
733d
12a5
3547
3d72
57c8
3d71
ed47
673d
efbb
efd0
d3bb
643d
3d31
703d
13ed
343d
6648
##ode
rv
KH
js
##nu
333d
App
Geck
Node
bla
v4
##ML
##TML
##ke
##Kit
##Web
linu
like
3d66
##leWeb
d3a2
chat
KHTML
AppleWeb
Gecko
blank
linux
AppleWebKit
753d
ad47
4aa5
3d63
793d
773d
303d
57c3
04b0
323d
373d
read
57d3
7347
ffcd
3d6c
##_log
3d6a
read_log
ffbb
0302
3d61
783d
3d78
6d3d
353d
3d6b
3d64
3d32
693d
ff7b
3d62
3d6d
0148
713d
b9f4
6e3d
623d
0ffb
3d33
ff65
683d
633d
3d74
2648
6d47
3d65
3d73
6a3d
3d36
3d77
3d34
6e48
3d6f
743d
ff5b
6b3d
3d35
7269
0e22
3d38
6a48
3d6e
383d
3d37
313d
3d30
57cf
6e47
ff74
1347
141e
bc8e
613d
6c3d
d388
dcdb
da53
3833
ff6b
6c47
##wAAUumOkw
ffd2
fd47
ff6a
ffed
d372
4aa1
01cd
d38b
3d69
57c4
d3dc
ff8f
ff1a
7348
6748
0dd0
ffe9
7048
3d75
6347
d353
6870
504
0b47
ff4e
efcd
d3b2
d30c
7548
ff06
3d76
6f47
6f48
d3e2
ff7a
d39c
dd47
d3bc
ff04
ff67
12c8
d398
fff3
ff52
3d67
ffc5
d3b4
d39b
2f44
d38a
7248
0114
d3cd
efbd
d301
ff7f
ff85
ff3a
d3c0
6547
ffaf
d3e9
6832
ff16
d374
ffd6
d352
2647
6948
d33c
ff25
ff0b
7848
ff7d
client112
ff77
ff34
fffd
ff8e
014b
ff6e
ffd8
ffaa
d335
d3dd
ffca
d36d
ff63
ff32
fff0
client113
ff71
d321
6457
d33a
d346
d34f
ff2a
ffd7
4672
ff60
ff56
7648
6571
d32c
ff88
ff18
d3fa
d394
ffae
ffdc
ffd1
ff53
d3df
ffc1
ff40
ffe2
7020
d37c
d396
d39e
b933
ffb2
efba
134b
ff3e
ff42
d3f5
ffea
ffd3
ffdf
ffe1
6647
efaf
d3ae
d33d
ff9b
ff89
ff07
019e
d37a
d3f2
ffd4
ff12
d3a3
4e26
d3ec
d32d
ffb1
ffc9
fff5
fffc
01b0
0ae4
d354
efce
ff7e
ff1d
01be
ff3c
ff08
d363
d339
ff2b
ffa5
efbc
ab47
d364
d3fe
ff26
ffb7
4261
ff01
ff0a
ff9c
ff5e
016d
412f
d36b
ff0e
6164
ac47
d376
d3db
d34c
d322
ba47
d34b
ffce
efb6
fffb
ffc8
ffd9
7448
d3f4
ff35
ff76
ff4f
d38d
3f6e
efc5
efc2
efb8
efca
fff2
01f1
d36e
ff37
ff8c
ff8a
ff10
4c26
ea48
##F991
ffac
ff68
7148
ffe8
d391
d367
d385
ff6f
ff1e
d3ce
ffa1
ff86
d31b
ff5f
7747
ff14
6d48
5b47
6c48
01fc
d390
ff64
ff9f
ff09
d35f
ffb9
d318
fffe
013d
d392
d3b8
ff29
ff55
d362
d3e8
d3d6
ff33
d3b5
ffc0
ff8b
ffe6
d330
d373
d3eb
d341
ff3d
ffa9
ff82
6f75
d365
4aa2
2d47
5265
d334
ff87
efc6
d306
0153
0112
d336
d3d8
ff54
ff6c
ffcf
ff36
ff43
7c47
ff20
ffb0
ffb6
d331
ff2d
d31f
ffee
d395
d387
ffa8
ffb3
ff13
d302
ff45
d325
d3b0
ff66
ffb8
efc0
d3a4
d35e
d38e
d3d1
d3f6
ffad
ffba
ff28
ffbf
ffa0
ff83
d36c
d3fc
efb4
6c6f
d311
d368
d384
ff27
ff15
b96a
d3e1
ff31
ff0c
ffe3
ffef
01c5
d35c
ffec
ff9a
ff21
efbe
ff4d
fff7
011a
d3ba
ff91
01c8
d375
d3ff
d397
d382
ffd5
d314
d3ac
0139
3f33
fff8
0172
d386
d340
ff73
ffc3
ff17
eb48
d39f
d3ee
d3e7
b247
d3b3
efb9
6a57
ff44
d303
ff3f
ff97
ff02
ff1b
d308
fff9
7247
7447
d36f
d366
d383
d3d9
ffbe
3f69
d360
ff9d
ffab
efb5
01d7
d34a
d3af
ff58
12da
6b48
d355
d35b
ffb4
3f35
ffeb
d389
d343
d361
d33e
ff0d
ffcc
ffc6
01f8
d371
d3d3
ff62
ff23
3f6a
fff6
ff5a
efac
d3a8
01ed
ff69
ff2c
ff92
d312
ff4a
ff61
ff9e
efc3
d3ef
d393
ff94
ff81
3f6d
d370
d36a
d34d
ff72
ff24
ffa6
d304
ff1f
efb1
d30b
d3ab
0193
d32f
d3fd
13fb
0106
ffc2
ff84
ff96
ffcb
efcc
fff1
0123
0124
d378
d3c8
d3ca
3348
ffbc
d39d
d3e6
d3b6
ff2e
ff93
ffdb
efb3
d307
019b
d381
d3c6
4aa7
ff98
ff7c
d316
d37e
d3f8
ff4b
3f6c
efcf
efb2
ff4c
143c
efad
d30e
ff19
efcb
d326
d3a6
01db
7847
8548
01a3
ffa3
0154
0170
12b3
ff99
1443
d31e
012b
018b
d323
d332
d3c2
ffa7
d447
fff4
7147
012d
d333
d38c
d369
ff6d
ff39
ff1c
7947
01ce
6357
7068
d357
d34e
ffc4
ffb5
ff11
d31a
5526
d3e0
ff05
efc9
efb7
d3aa
01c6
d3bd
d3bf
d3b9
efc1
0175
01fe
015b
0102
d356
012e
01da
d399
5c47
4d26
2653
01d0
d349
ffd0
efc4
3147
ffa4
01d2
2e38
6420
ff51
ffe7
0157
6447
d3c5
ff90
##vj
01de
0168
3447
ff75
3f64
6248
01c1
01fa
6769
d31d
ff5d
d351
d3f7
ff70
3f38
7748
0125
016c
0df2
d315
be89
01a1
0184
0121
01ca
01a5
d3c1
d3be
ff0f
3f68
7175
6848
e648
0122
011b
3047
d32e
d3c3
2247
01eb
d359
d3f0
afd3
d3f3
ff22
d3cb
ff30
ff3b
ff79
1409
12f8
011d
6448
d35d
ff78
266a
0187
d3d5
d344
01fb
d37d
d3fb
ff38
6f67
015f
01aa
ffbd
6d57
3f76
efbf
d3d4
d3da
efc8
0155
3048
4426
6857
d3a7
a002
9247
01bd
b547
015a
01b2
5426
efc7
d38f
fffa
0196
0197
01a7
010a
0194
3f32
efb0
d30a
2656
b347
012f
013a
6e64
d39a
ff03
##15F991
b147
1344
7e47
0144
d32b
ffe0
3747
01ba
01bf
d3de
d319
7626
e948
0179
01e5
01f9
ff57
d317
d3a1
c347
9447
01c0
01e1
d3f9
3726
ff41
0164
0176
019a
0129
01c3
01d6
d3d7
ff49
6957
01b5
2d6c
ffe4
017c
014d
7647
ae47
018a
d358
d345
ffda
ff46
0120
01a4
013c
0127
01f3
01f6
d337
d3d2
ffde
010b
d37f
7675
01b4
0dc2
d3e3
b648
ba2b
01d4
017d
01e2
01f7
0d47
d342
ffc7
3f72
f848
2637
7547
0185
d3e4
3f63
0162
015e
0146
01c4
01a0
b748
3126
01b8
0136
01b9
0115
d3cf
1416
d305
cb47
0142
014f
d338
f148
01e6
010f
3f78
3f71
2641
b047
6426
4aa4
ffdd
3f70
01cf
0145
ff8d
3f61
ffe5
0e48
d379
3f66
013b
d3a5
bb22
01dd
0143
0178
017a
01e3
d3c4
3648
0188
0113
a548
0163
0192
0137
3b47
a347
6926
0190
01b3
014c
1268
018d
6970
0159
018f
01d3
138d
ff59
0174
466f
3f67
3f77
019f
01a8
0183
01df
2670
01af
01ae
018c
011e
7948
2b47
5626
d547
01c7
bb75
ff5c
01d8
6c6e
3626
6726
0128
4b6f
2672
0161
0169
0158
01f0
2347
68df
a147
7926
6557
6269
264b
01b1
01b6
d327
3326
756c
d3a0
ec47
fb47
0167
266f
1321
##16021B
0133
0171
0df9
01c9
011f
4b26
1032
7326
01ec
01ee
0dbb
0a47
ff2f
ff95
e848
3b48
0119
2664
3c48
01f5
7226
7726
f247
01c2
016b
a012
12ff
0132
015d
6f57
6d26
3f65
3548
5726
01cc
01e7
d32a
3f62
01ea
0138
01d5
141d
d3a9
016f
0189
0107
3f75
a5dc
be52
01ad
ae72
6847
016a
01cb
01dc
0110
011c
0141
e548
2649
01e4
01ef
d3c7
3647
01a9
2643
01e0
01ab
3f30
ba99
2667
ae89
01a6
0149
0da6
3f36
0e0d
0ff5
8648
bef7
0186
6226
6a47
1a47
5226
ee48
01ac
01f4
019c
4a26
7369
3f73
6057
0177
0111
6c26
0160
0140
0126
4b79
f248
0151
01fd
2248
d3f1
d35a
2631
0118
332e
3f37
2658
dc48
017f
6147
7469
af65
017e
4a9f
2644
2673
012c
0182
##1E1E64
2679
01e8
129e
0f47
2676
2632
6247
01b7
6126
264f
6a17
ab82
0166
013e
4d6b
266e
7047
6826
6f53
f147
6626
7d47
ce48
1336
8d47
692c
014a
6572
d3e5
5f31
0e29
2053
6dbb
01ff
0195
4d35
2662
7b47
7a48
b647
264a
3e48
6b26
0198
0199
a448
4726
2661
fc47
0165
5026
2675
e748
3026
1e48
2a48
58a9
0647
019d
0152
016e
017b
01d9
4d63
266c
0191
d3c9
2663
0130
0116
014e
6f26
144a
8348
0134
3448
3748
0db4
1402
a848
2638
6974
010e
696c
01d1
d3b7
2657
ca48
0a0a
5f17
6348
6e26
13c4
013f
4f26
3f74
5326
0131
0109
4ba2
018e
e447
2645
0181
7426
4d6f
d048
a6b7
0105
3f79
d847
ec48
0135
4d71
266d
2646
9a47
1247
b548
015c
fe48
1002
6961
3526
2665
c147
2671
4b62
be6d
7526
3f6b
aa48
2034
3426
2636
9648
010d
5964
baeb
b248
f947
01e9
4cbb
9847
6a26
6947
4c73
4d33
01f2
4b64
2659
0347
4d64
d329
9548
e347
3a48
3f34
6253
9147
2666
2635
8a48
9e47
4c6d
6b47
c647
6526
d247
ee47
012a
5126
1447
2668
f647
6148
6353
264c
b917
14bb
12ac
2651
8748
0156
db47
4c70
4c68
1010
ce47
6e2e
2674
a6d3
d648
01bc
b447
4e33
f348
df48
4b34
4526
104d
2652
8848
f948
7026
dd77
bf14
4b72
4d67
4dbb
a665
12cf
0e47
b848
4926
0da2
4c35
0e37
d248
1c48
9347
bf47
325f
1360
2633
4c63
8248
2634
a537
efae
b847
be47
4d68
2642
6747
be53
264e
0648
9c47
0173
4c64
4c38
f6a2
cf48
d548
8e47
a648
aef7
dbab
6d97
7873
4c6b
0247
4c79
a148
bcd2
8e48
3847
4c65
4c71
1417
9947
a7af
2e34
6162
4d37
5826
2677
6326
4c67
fa48
2e70
6cd7
0f48
6853
0b48
8948
da47
4b68
8847
1d48
8347
a726
4d79
9d47
4d66
f447
d148
3148
2f6c
4b6d
4d32
bd24
13a9
2748
3848
4b30
4d73
4da2
2654
a69c
8747
f648
2c47
a56e
2669
8947
ca47
2052
6797
7853
c047
12e3
4326
ef48
3226
4ca2
4d6d
5926
4c66
4d70
3f31
7126
1547
7d48
4826
4b6e
3ea2
4c31
6917
2f32
1410
2948
4048
f748
##gAAMdOpkw
69d7
bd3f
d2bb
2655
e547
2042
6417
4226
6e57
b448
4c6a
a5a5
1e47
bc47
bedb
4e32
e6bb
c548
4126
4c69
4d78
58b0
b348
d947
6597
4b61
4b67
1147
13f4
8448
66a2
6017
4b77
cb48
4b37
4d6c
9f47
a748
cd47
4d62
6d65
f048
7e48
7f48
8c47
1424
6ca2
2630
4626
8c48
4c6f
d047
6953
2f48
##2339
4b36
5f97
98bb
1306
ba48
9848
a725
0e07
3248
4d30
4d75
6a97
539
4b6b
4a9e
4aa0
bda2
4e35
29bb
5e48
bd47
2847
0a02
4b66
8048
4c6c
14a2
5f57
0e1b
a741
7a47
6772
4bbb
4d38
a447
a7a2
2148
d147
4b31
cd48
7826
4e30
af47
4a71
5fd7
b9a2
d848
0d48
c348
a5f8
266b
0deb
12bb
4c72
4d6e
140f
b9bb
b9bd
bfa9
9fa2
c5a2
b048
0c48
ab48
4b74
4c37
6f97
58a2
0e59
bc8d
cc48
2e47
4c6e
2448
0447
4cef
c447
e847
0dad
02bb
c448
98a2
4e36
2bbb
b947
cfbb
89a2
e348
8b48
de48
f547
4c78
4d65
1948
b948
6c53
3948
7753
e947
6372
6861
eda2
a248
0feb
8a47
eb47
ef47
3826
4b63
6862
9da2
8148
3aa2
7553
4d6a
a647
afbb
0947
4b69
1248
93bb
740d
386a
4c75
f1a2
1328
cc47
4b65
4d36
9aa2
da48
73bb
6d67
6cbb
c7bb
102b
7363
5ebb
eebb
d5a2
7ea2
7c48
a947
b747
d4bb
67a2
4c76
9dbb
4e38
a517
1748
3e47
fc48
##E1E64
31a2
ac48
4b6a
4aa6
640d
1406
4e34
4e37
d7bb
9248
c547
d2a2
0248
6e61
4c62
4d31
f1bb
7570
4d77
6f54
42bb
0fee
60bb
c648
6553
03bb
143b
ddbb
cebb
e148
a047
6317
9e48
4b35
cda2
12ba
4d74
c1a2
d8a2
59a2
1647
32a2
b4a2
132f
dfa2
aaa2
5cbb
5669
eba2
fa47
6132
1062
2447
b8a2
4e31
7abb
9047
4d72
68a2
6d53
5dbb
96a2
vulclient1
1847
4b70
4c34
6d54
1017
a552
vulclient3
2678
8bbb
c0a2
4b32
4b73
0848
142b
b5a2
56bb
90a2
de47
6e55
06a2
264d
a847
1d47
22a2
aea5
4c30
4d69
7163
e5bb
83bb
aa47
38a2
78a2
a4a2
ba62
a9a2
0ba2
cf47
d0bb
614f
3853
d4a2
6aa2
8b47
4178
6da2
52bb
vulclient2
0ea2
82a2
80bb
a2a2
3253
76a2
84bb
9a48
3255
8011
8aa2
3ebb
b932
25bb
133d
7ca2
bf13
c4bb
##rF
2aa2
1947
7353
72a2
9b47
f548
6176
4d76
a1bb
eca2
56a2
6f4d
7659
b148
c248
bec0
e3a2
3153
6153
38bb
6d17
d8bb
7cbb
6c41
03a2
0948
0239
1648
1a48
6e6d
12c1
586b
bea2
3446
ba7e
02a2
8247
a0a2
dd48
6d61
9748
9948
6d56
88bb
66bb
c7a2
3c47
ae8a
706b
1408
6a62
3343
6f17
bcee
92a2
ebbb
4b75
0803
586c
6dd7
716a
3cbb
1f48
8d48
63d7
dba2
2a47
4c74
e448
97bb
f7bb
3746
b3a2
db48
4b6c
732f
9448
f8bb
bbc8
3ba2
1ba2
af48
be48
4c33
f448
3bbb
bc1e
634c
d1a2
4934
f847
bba2
7477
7453
6fbb
3fa2
fda2
30a2
8647
34a2
646d
b404
8047
13d2
4c36
bdae
626e
e047
5bbb
6637
7ba2
282a
6e6b
fabb
b3bb
f047
8ea2
eea2
6575
2cbb
b8bb
fca2
a048
1b47
3778
afef
65a2
1297
0847
77a2
d1bb
99a2
cbbb
e647
69a2
4832
08bb
3fbb
a5a2
b2bb
5f47
d647
3855
4b71
736e
71bb
faa2
16a2
d9bb
1148
1024
7fa2
7966
26bb
12f1
1b48
23a2
2848
7041
6166
4b76
b1bb
43bb
bca2
6b59
bbc9
7431
5dd7
6a6c
49bb
5038
3653
9f48
aec0
e4bb
4b33
13e6
58bb
6d31
84a2
36a2
6641
1bbb
3753
c747
20bb
324f
1848
6354
5877
58aa
6d6a
09a2
aebb
2947
e048
1ea2
4434
704e
686b
0e52
a2bb
130d
6f55
50a2
6ea2
6e78
fdbb
bf8d
d7a2
566f
101d
2b48
2f76
13d9
d448
e4a2
6a64
4975
bebb
6663
9cbb
a948
b4bb
bb59
fd48
3072
7531
589f
1fbb
4e3f
7252
ae4a
ae46
8547
c947
61bb
4f31
4a9a
6f74
d2e5
9ba2
b986
df47
d2b9
6952
4be8
6817
e5a2
2147
6b53
6238
614e
74a2
6e38
3365
5898
4ebb
5564
6c72
85bb
82bb
d0a2
10bb
62a2
ad48
3452
1367
8fbb
6c34
62bb
2ea2
33a2
74bb
69bb
0448
67bb
7464
8da2
36bb
4235
2047
4564
23bb
336e
bb91
7fbb
d6a2
a348
b94f
366b
60a2
d948
ed48
45bb
706d
6432
7138
78bb
596c
debb
5665
24bb
3736
b9bc
676b
614c
4b38
11bb
1009
cfa2
6a79
92bb
784f
6245
7253
3947
5ea2
0de4
6e66
5172
bd5c
0748
5433
6346
3865
dddb
bbac
dfbb
626b
17bb
7745
8147
c048
d748
1069
f153
21bb
4e76
7974
5397
c5bb
85a2
6257
6c43
58a6
7153
af2e
9ca2
27bb
1039
42a2
5d47
666b
6517
0d9f
7053
64a2
46bb
4a38
8447
f9a2
7233
83a2
80a2
b0bb
f0bb
##am
696f
6345
7473
7438
aca2
6e56
6497
3568
09bb
5abb
1aa2
f5a2
1f47
7bbb
6934
6332
7554
704b
58a0
5933
7743
8f47
446b
4c77
c8a2
7272
6c33
0e4b
7963
a6bb
6f43
6b42
94bb
18bb
30bb
6e79
6453
6446
7154
364b
caa2
4773
a70a
87a2
2747
70bb
a7cb
4bcc
75a2
4430
6e6a
39bb
7264
6b6d
baa2
febb
6047
7338
2ba2
a778
3258
676d
6776
3064
3871
1054
6f36
c1bb
6c6d
d6bb
a51b
3678
5d48
3166
5768
586f
7da2
5aa2
ae35
e3bb
7653
7655
7953
7952
0e44
0bbb
2548
52a2
7b48
a3a2
acbb
4162
6f31
1abb
796c
d5bb
4de8
7734
bbbb
dea2
5078
6ebb
704f
4c32
6d63
7130
6262
4373
a5bb
e9bb
3756
0747
3671
3576
6635
8f48
6555
6178
6333
57d5
4df3
7376
7165
726b
bab5
7967
ecbb
9547
3145
32bb
6165
4bcd
4b2b
2348
6e37
706c
13cb
4ccd
5866
bdbb
4e61
55a2
15bb
26a2
674a
6644
6b4a
ae48
fea2
31bb
4435
2c3e
4cac
4dde
7364
6b6b
7965
5231
22bb
774f
6651
5ba2
bb48
ea47
7432
7062
adbb
5965
e147
b2a2
28bb
0dc9
4469
6e36
7051
13bb
3362
afa2
5535
6a63
5970
5976
c2bb
6643
6258
c847
34bb
a0bb
fb48
314b
694d
54bb
6556
2816
3267
2f47
6169
616c
7434
456a
3462
6444
4ce6
8cbb
6d4a
d0df
3673
5936
9b48
25a2
676c
7052
1394
588d
6d4b
bf2e
6a51
8abb
a9bb
e7a2
6657
b9d8
6531
306f
3053
4baa
0fea
6876
6f77
5878
6d6f
6d33
6c66
6a31
6b68
6658
764c
aea2
744d
6f32
5fbb
9fbb
726e
6c35
e6a2
4369
4764
b7a2
86bb
4de7
6b4b
6679
9bbb
fba2
6976
6579
7534
446e
4177
1359
7377
5876
91a2
a1a2
3766
8fa2
5975
49a2
4334
fcbb
bf48
fe47
4478
416f
344c
105b
6d59
81bb
7275
764b
4779
6552
3252
3441
4d21
6854
7279
6a67
c6a2
9148
7f47
cba2
f747
6538
5732
6462
4661
4c2e
4a37
4d34
5873
5366
6b4f
6c59
3656
a649
3779
f2a2
4a72
87bb
3908
6757
0348
506d
3859
4164
4d14
3368
a3bb
7355
5678
5937
6ed7
73a2
656f
7079
3378
6f72
5869
21a2
7dbb
6c32
6659
5467
6334
4ba5
7575
3449
bfa2
4e64
556c
6c67
6a38
8ebb
07a2
e9a2
47bb
27a2
e7bb
794a
6845
dcda
6156
18a2
dbbb
4b78
7042
64d7
1432
8dbb
bb3e
4e79
5532
6c71
b7bb
f7a2
53a2
fbbb
5478
6551
4575
1048
3575
4d02
6fa2
7851
6abb
6631
79bb
5372
b5bb
a62e
3666
3771
7471
3052
4f35
4172
4dec
f4a2
6c30
ce53
29a2
c9bb
654e
bfff
28ed
324a
2fa2
6759
4be4
4f6f
4533
6e42
1070
4dcd
39a2
5931
a7bb
7349
6249
4def
7259
64bb
766a
c3a2
3179
6567
65d7
28a2
6142
4bb2
3da2
1407
f170
81a2
6b30
5977
76bb
674e
12a2
b0a2
314e
6134
7462
416a
646e
e8bb
5563
6a66
6a76
7976
4767
96bb
6f52
6f49
2c53
2547
3634
9647
a747
6753
6130
4bac
4f32
3465
6431
2da2
1459
4e3e
626c
4931
16bb
d9a2
4265
3758
9348
4335
44bb
5676
aedc
bd48
546c
6367
41bb
2c48
6443
4ca6
356f
5131
7162
cca2
5374
7654
9048
c948
f0a2
6131
6e76
6459
466d
6f70
6d52
6a53
6277
95bb
374a
6646
aba2
346d
3458
4ddc
2d30
7730
6d72
5531
6c79
5938
19bb
86a2
724e
334e
3544
664e
1f53
7337
4336
4734
c2a2
6170
3074
7536
344d
684b
68bb
686d
7879
a8a2
6c78
6b6e
0e14
7031
784d
6a46
5232
pam
546e
65bb
3246
7452
384a
4f61
4cf9
716c
7833
afb7
6a69
6278
4935
06bb
664a
664f
6c4c
5e17
2802
3175
3245
6e35
139b
4c7f
4cf7
4c85
7334
a803
6b70
6b6a
0ca2
0e60
666f
436d
4231
6843
3744
1348
4236
4771
6638
6151
3837
4bcf
4433
6f37
7155
786d
37a2
7268
6a61
6a56
4969
3ca2
7149
734a
6653
6534
28af
0ddd
2fbb
67d7
616a
686c
7762
5879
58a8
7855
6268
6b6c
4363
4375
5368
766c
f2bb
3346
6645
4047
6655
6173
616b
744f
3075
4bcb
3453
3377
6fd7
7732
7862
c4a2
6b77
59bb
5978
5966
dev
526a
684a
7343
354f
9d48
6977
6764
506b
4b2c
4535
706f
5838
6d34
1cbb
6a32
596d
4366
b6bb
6244
7656
366a
40bb
##tV
3167
3264
326a
6763
4863
6e77
706a
08a2
4d0d
7866
6b57
7aa2
79a2
dca2
476f
17a2
7034
c6bb
4ded
bf12
202011181
694f
6563
324b
6735
61a2
63bb
704a
646a
4ce8
4a9b
6254
1ebb
c9a2
476e
4c5c
4ea2
4634
6bbb
3143
676f
486c
3864
3842
6e54
4a74
4d03
6f6e
7134
7838
556b
6c73
796b
374f
3546
735f
3359
10a2
5577
6ba2
##ure
2ebb
6133
744c
4b9d
576a
6461
646c
4c10
356a
4d18
0fbb
0fa2
776b
4977
6668
796f
5396
b6a2
5036
6841
6545
3541
3542
6b4e
d2d1
3352
4737
a506
04a2
324c
614a
dabb
3854
4534
446c
3469
0272
7054
3379
5165
5fa2
e40a
6a6e
5961
ae56
664b
f3bb
1767
97a2
6f51
724f
3741
6c55
7958
6676
e747
f4bb
6565
6738
4833
6344
7449
4b7f
4bae
7535
7537
7045
3563
6852
c8bb
1457
b8fb
a8bb
eabb
6a35
7970
5367
7668
784e
6243
6544
774a
354b
3643
af13
7234
##ts
3852
4be9
cdc0
6e97
7071
6464
6434
4aab
2d48
51a2
5863
6a52
4762
6f45
6a45
280d
4777
5638
pts
6935
7468
7479
3078
3042
344a
3556
4d25
7774
1453
589e
588e
7157
e1a2
6c77
6267
626d
6b34
6b96
5934
0e30
4230
6844
6241
6746
131a
6048
4778
7737
9c48
cea2
5434
4875
7436
506f
4b3f
4bdd
3471
4d1b
3dbb
b8e6
aabb
794e
5336
3268
2e48
6331
4c25
3559
5136
14cd
5835
7156
37bb
e8a2
536c
426b
7671
c748
6930
4830
506a
4570
3459
4c99
4d09
6871
7772
91bb
dda2
94a2
3663
6c62
53bb
5663
703a
4de2
654d
1c47
4233
7936
90bb
6143
6141
6359
7430
50bb
4577
6e6e
6e45
4c94
4a9d
3572
3557
5834
7865
3764
796a
436c
5376
8ca2
5634
5571
63a2
8ba2
f3a2
5466
676a
5064
daa2
3062
384b
4473
7059
6433
6456
4d3c
7332
5832
7957
83cd
9690
login
3174
6936
6732
6356
7437
4bd9
7067
6430
4c0a
7371
145b
5897
7230
72bb
4e70
6c54
99bb
5379
4274
4262
7672
766e
f6bb
714d
7346
6b4d
d61e
6736
5069
7046
13df
4dc2
5831
5871
586a
6d32
786f
7263
6231
6b35
6b71
19a2
7971
536f
b05e
07bb
4732
6f44
7849
6b44
abbb
3165
316d
286d
3259
636a
6341
306a
384d
4bff
416e
4136
3470
3553
6830
6873
3370
6d78
3631
7266
4e68
55bb
6272
7964
436a
5233
6979
3249
6774
616f
6337
11a2
4466
342e
4a73
3555
4dc6
58a5
71a2
7837
6c70
6b64
b0cd
15a2
654f
7251
14b8
c08b
22cd
6975
6938
6577
634a
306b
3076
3841
4573
4161
6e31
6f68
7365
7177
7159
784b
7856
3732
5561
5972
4379
7033
6d45
7645
666a
6770
6157
4ba4
446a
344e
646f
6436
3367
f1cd
3730
4e6e
6a54
6b72
4967
6662
7934
714f
3677
6236
7771
c0bb
3173
3276
2533
6756
4872
5073
3045
4165
6e49
6838
edbb
776a
5896
1d53
f8a2
6a68
6b33
7ebb
5969
babb
0cbb
1e6b
784c
774d
3642
4936
3176
20a2
3275
6751
3044
4b8f
7574
7563
6438
4df1
77bb
f18e
5870
6d6e
5d97
4e6f
7969
5371
f5bb
4731
a6a2
334f
374c
3644
bf49
f353
e0bb
6754
4865
746d
5070
db36
3831
4b7c
4f74
4566
6e33
6e52
4cca
3569
4db0
726c
5530
6b62
5968
4930
6672
7941
7744
6632
7232
a4bb
69cd
6997
2f53
676e
6773
6737
6355
3067
384c
4f77
4176
6e4e
4cfe
4c17
4c1e
4d04
6897
6d76
e1bb
376e
6a36
4974
5268
7142
7842
7243
134a
GA2
cccd
##ix
##_un
6136
6373
7467
386b
4b87
3464
6e62
5761
6478
6452
4c8d
4c11
4d7c
6866
6858
7330
5874
6d55
e4cd
376f
6a78
4979
7341
4deb
654b
674d
pam_un
pam_unix
02ff
3633
4678
5237
656d
3241
6138
486e
48a2
4b93
4f78
4f66
4571
44a2
6451
3772
7270
4965
666c
7973
5276
4763
bbc7
3163
5431
54a2
6336
3867
4bea
4bba
4f6e
6445
4c0b
4d19
3761
7262
6c76
d0cd
476c
7035
f144
774e
364f
3353
3759
4635
5e47
696d
3445
4630
4ca4
3372
336f
1479
f15d
6d71
efa2
7864
3768
3669
3668
556d
796d
3743
6642
5337
bc48
5436
3279
0dd7
2f78
6767
6771
##tion
4873
4b89
4f79
4431
4168
6e4b
7073
644e
4d9c
6868
736d
5164
14e8
7278
ccbb
6266
4266
6a41
6a4e
654a
6541
6744
7741
4633
694b
6574
486a
5062
3057
7569
3477
6e46
4c40
3558
3373
3357
3376
516b
1465
5875
1dbb
716d
7166
4e6d
6a74
6b73
7961
4367
89cd
784a
7344
4e10
7210
82c0
4232
4676
40a2
e0a2
326c
2033
4468
2abb
4c7d
4cd0
4ce5
4daf
7179
6c36
5973
4330
0714
6546
774b
7543
754c
aea6
bfe6
bef8
6530
6730
4834
6397
4b97
756f
7567
12ea
704d
4d23
4dda
4dfd
6834
3363
1427
bd78
376a
6a37
7972
7935
724d
6b45
1313
5636
6234
6237
6968
04bb
6152
6146
4869
7446
756d
4c2c
3570
4df0
24a2
7761
58a4
7158
4e23
6c31
6a34
6a6a
6279
6b78
dcbb
426d
4d40
714a
6f42
7246
7249
c553
3734
3776
5238
6232
a6cd
6561
326b
613a
6371
386f
384f
4b8d
4be5
6863
6f71
6f76
ada2
5868
7170
3674
5962
6630
c925
a794
6f4e
3757
7666
7777
3149
6972
6963
696a
546d
6559
5066
4b85
4bd8
4f68
4fbb
3467
4666
4cd4
7367
7720
516c
14d4
7861
6270
ca53
4364
93cd
5664
4dee
4e12
6b43
3652
c148
4e07
3151
2073
3271
2e33
506c
4d3b
4d27
6864
33bb
d853
3769
4e14
5534
6a65
9abb
5369
4275
566d
624f
374b
6c44
2253
5735
5576
316f
3164
6954
5479
3265
3a47
6175
6135
7454
5067
4572
7530
7055
4cde
7168
5da2
bfbb
6261
7975
89bb
4761
7549
7757
4736
5633
7235
6161
6145
4bde
4b2d
4bb1
456c
3444
6e32
7063
6442
1084
35bb
4df8
6835
736a
7173
7135
bf8b
3662
726a
5565
6b63
6661
6675
9ebb
7962
4370
526d
7242
c848
be1b
3676
43a2
4c24
6673
##en
2844
6731
486b
6358
3844
4f75
4538
7057
7066
6458
7763
3664
6a4b
4963
bc9b
426c
6246
654c
364d
8653
330d
3737
5738
6946
634b
3046
3040
3861
3878
4467
3472
3479
4d0b
6f66
776d
b1a2
7835
eaa2
556f
6670
5274
7843
6a42
7255
7751
4735
5737
a777
##tica
6163
746b
3054
3066
4beb
7558
4174
6470
4c2a
4abb
4dd5
6836
3774
4e63
6a73
c3bb
6012
##entica
3172
6158
304b
756b
7070
7049
108c
3554
6f79
58af
7871
6c68
596b
7667
6f41
374d
7545
6656
4632
7736
6566
4870
636e
744b
5071
acd5
4d9e
4daa
4d5b
4d8a
4da7
776f
f1bf
6d51
5573
6a6d
4973
4362
47a2
714c
1016
6259
7758
6958
6777
48bb
456f
6472
4664
4cdd
4d60
6869
6877
336c
6f6d
1492
1497
3754
3770
bbad
724b
7271
4e71
6c37
6b55
4962
7931
7977
436b
526b
476b
5662
764e
1314
4333
##entication
320d
4234
4c28
314c
6943
5430
6177
636c
6342
4bc3
4f38
4c91
4d0a
6d66
7869
bfc5
366c
4966
0ebb
6667
bcbb
c2b5
6a4f
4e1e
5b17
614b
486d
6338
4ba0
4bf9
4132
3463
4cba
4cf2
4a34
4a77
7378
b1cd
147b
148f
586e
3773
726f
4e73
6a75
5373
f5cd
6a4d
7244
664c
6b41
bffc
4738
6634
7237
6937
656a
6179
746e
5074
306d
4be2
45a2
46a2
4dd1
6856
336b
6f4b
716f
bdad
bd25
376d
5567
6b61
6b75
0e3e
766f
5661
794c
6549
6252
566a
7435
7444
4f6c
4530
6e71
6e59
7075
4669
4c23
4c8a
3361
5168
7877
722f
596e
354d
6b4c
7017
4937
3879
4bc9
6e41
7072
7077
4cb8
4cae
3564
6833
6859
5179
1451
7832
4e24
6c64
626a
4331
4374
5363
5370
714e
3349
7542
a3d6
4e0e
5473
6578
6137
4ba9
4b8c
4532
4462
44cd
4130
706e
6471
8053
4ce4
4a79
f1f3
7878
3767
366f
4e6a
6b54
7978
b027
4272
7942
364a
4e29
5671
3170
6752
6370
3069
3051
304f
4bf3
4536
7566
704c
4da4
4d13
5137
7136
f9bb
7949
4e16
6542
754f
6c4d
4671
7779
a7b2
3178
5465
6733
3836
4f65
4f34
4fa2
3457
4d7a
4dd7
686e
736b
5167
51bb
6d77
5f72
3665
6276
5971
5ca2
4270
7631
7663
a290
7141
624a
624d
4e1f
754b
764a
4c27
6b52
7676
7236
694a
3261
4474
4131
6463
4c0e
4d0c
7164
4e2c
596f
5278
7670
684d
3345
364c
6636
3142
6967
546a
6734
7461
7451
4bdc
4437
4169
6e70
5766
6477
6449
137f
4cb4
4d7f
4dc9
6851
334b
7362
f1a0
6d37
4e6b
496e
0bf5
95a2
6f46
684c
4de0
4e17
354a
3355
5335
3632
694c
5470
4838
3857
4baf
4bfb
4be3
3474
026a
2ca2
5769
13cd
4caf
4a78
4dfe
4db8
4d15
6874
516e
5572
5533
6271
4972
6620
b9a1
5273
6846
7241
7351
7352
4338
2b53
6233
7678
8bf6
3156
5471
0a76
6154
6376
7466
7533
576b
6441
4cf4
4cbd
4d98
4d9a
4ddb
1404
148b
5864
bdcd
7874
7834
3670
6274
5963
5967
536d
4de3
4e1c
d553
3579
4e06
3158
5437
3244
5072
5076
3056
386e
4568
4ca5
4d3a
6f38
5162
1415
f166
f1a5
7151
4e39
6674
7932
794f
3341
334c
d2e0
3755
5632
6677
bea4
6978
5463
6558
6159
4876
3059
4b90
4bb6
4bd5
4bf8
75bb
7559
7556
6e43
1298
7069
4670
4cff
4c95
4c9d
4d7b
4dcf
4d81
6f63
bf8a
726d
6c61
5979
cabb
5675
6b49
7356
3735
3738
6235
7677
d6a3
6374
7463
746a
4b7b
4bc6
7551
4476
346e
4d94
776e
5171
586d
7876
8407
afb8
6c74
6a58
6b32
6b58
5935
6664
666d
7968
4378
4271
4279
6f58
6f56
4de4
4de1
6d4c
674b
674c
664d
3645
6c45
3655
90a3
6554
6576
0a56
6761
6366
7476
7456
7445
4138
6e6f
6e34
5767
6479
4c9b
4da8
4db3
5865
a259
5574
6c63
7979
5230
5275
6743
674f
754a
bb41
0622
3636
4237
5578
9ea2
6971
3abb
4864
4835
7441
4bc7
7552
41a2
6e75
4c2f
4ca0
4c8f
4ce7
3562
4dea
4d2e
4d1d
3369
5837
6d38
7174
7831
7836
b8f7
7277
4e25
4e2a
5538
496d
5361
5377
526e
6d4e
6652
3641
7002
02e4
7673
7238
##gAAUumOkw
3159
6569
3278
6171
3073
3863
4b94
4ba8
4b5e
4f63
6e30
7058
4c81
4dcc
6872
7379
5170
f16f
f1fa
6dcd
7167
7870
1fa2
6c6b
6a30
4932
5035
794d
7342
6d4d
7959
5c48
7733
314a
20cd
6535
386c
4b7e
4f64
4569
416b
644f
4c7a
4cab
4db4
4dbc
4dcb
6f78
1466
5830
6d64
4376
526f
5631
6d44
7759
0fe6
15c7
3571
4673
5997
6b51
7937
6959
5432
7458
3862
386d
4438
7044
4c87
4db5
4d83
6f34
7754
1da2
7161
5d17
bdea
d8cd
fail
536b
eb21
426a
7345
3344
5476
ac53
304d
4b9e
4bca
4bd7
4bdf
4f73
4f6b
6467
4c01
4cb2
4cb7
4d96
4d89
6f30
6f61
7354
7767
6a72
6a55
1a53
436e
4268
7841
3745
22c6
failure
3953
316c
314f
3079
3869
3873
466b
4c7e
4ca3
4c1b
4dc8
4d9f
4d10
5161
f4cd
3672
4e72
5569
4277
4772
476d
5672
374e
7257
d03a
764f
3638
7636
636d
4f62
7579
4463
446f
4cc9
4dd9
14c6
587d
596a
496c
7933
526c
724c
7256
764d
0e45
532
7ec6
a6ee
bb07
314d
5477
6377
6378
4bc8
4b3e
cd53
5763
4ccc
4c7c
4cb9
4cfa
4db1
4d8e
5138
f1fc
5861
88a2
4e01
5332
5272
5271
7146
4e19
3351
d253
c782
1b53
93a2
5469
3269
4831
7474
7455
756a
6468
4cdc
4da3
2d53
5174
5166
516a
5176
f1f4
7137
bf8c
4e62
6c65
d2bd
7036
6745
1f44
5f48
7632
3152
6964
6951
4874
3877
384e
6476
644d
1077
4cc4
4cdf
4d86
4d12
6f35
1ca2
4e65
624b
4368
4267
5670
d01b
6697
3733
6956
6364
6379
4b91
7571
7576
4135
3468
3442
4cf3
4a33
356e
3552
4d7e
c853
3364
1419
6d6b
5932
4976
5362
90e4
6b46
6c57
0653
e653
280f
77b8
3157
636b
4bd0
4b8a
4ba7
4ba6
4c88
4c1a
4da5
686a
3371
7766
516f
1452
f1a1
3675
5575
6263
5270
6a4c
3658
7644
6633
70a2
7633
eb53
6932
5472
3256
6768
7457
3063
4b60
4f6a
6454
6473
6455
4c3c
4cf6
5173
145d
714b
7868
6265
4971
794b
a793
4c5e
6842
6d41
3543
6b17
3751
af4a
3777
4638
7776
6766
3832
3835
3876
4b83
4fcd
7555
3443
7043
4667
13b0
4c97
4ccb
4a9c
68d7
edcd
5134
f187
589c
6d62
716b
d1b2
556a
6b69
5375
6f4c
4e18
7544
354e
5b48
5615
6758
4bec
4bee
4b40
416c
644b
4c0f
4df5
4d5c
6831
6f6c
141b
f18d
98cd
8fcd
7274
4e69
5974
496f
be37
c029
5277
7664
566e
5668
7945
7258
fc53
4637
7679
5461
6755
4868
6352
3849
4b81
4cd1
4cd9
3574
3566
4d2a
4d22
4ddf
3354
6f6a
1471
144f
f1b5
f11a
5862
af82
4e0d
4765
5033
7944
6742
3646
1553
7335
5333
5666
6762
6349
4b92
3478
4cbf
4caa
4d1e
7773
f171
f10f
6d73
6d79
6d36
3630
4e0a
6c97
6230
6654
4361
4371
624c
3749
754e
96cd
5063
4bc4
4578
4475
13b7
3565
4d7d
6f69
1423
146a
f12f
5833
ea56
7930
4372
c3cd
7652
7956
4e0f
9acd
656b
4bc2
4565
416d
3473
4ced
4cb1
4c0c
4dbf
4dca
6837
7366
f1de
f1c1
5836
6d35
7133
3763
cf24
366e
4e2d
6b65
d0cf
5378
5279
7038
7245
774c
b041
7642
0c53
7b45
1ecd
277b
9b22
3154
316b
634d
3874
3866
3846
4b2f
4bf4
4f30
7577
446d
7076
4ca1
4c9c
4dce
6878
336d
6fad
736f
f154
c164
dd53
94cd
4e28
5568
7943
6d4f
8253
e553
4acd
4238
316e
6149
daab
3838
4b98
4f72
7064
4c9f
35a2
4dfa
1495
6d30
6b74
5334
4730
7541
3657
3578
4e04
6933
4871
7443
4b3b
4b0f
4574
6e68
6466
4c1c
14e5
7820
786a
9822
6264
de53
5266
6a4a
d0d4
92cd
a9f0
d753
eccd
acd4
306c
4bda
6e2d
4c06
4dc1
4d88
4d85
4ddd
145a
589a
6c75
7954
5269
d010
3651
c253
3273
3277
6168
4866
6351
4477
4133
4166
4cec
4c7b
4cd8
4a30
0f2e
1499
4e03
6c4b
4053
5267
5031
724a
734f
6741
6c56
7336
f632
3144
0da0
6343
4bb3
4bfc
4be7
4bf0
4531
4179
6e73
4c1f
4a76
736c
1401
1420
1490
f11b
6d6d
6d58
3762
3775
7267
6a71
4273
4775
5674
5030
4de5
d044
6649
6686
e4b8
a781
2753
0421
3845
4bad
6e58
4cbc
356b
816a
6a70
affb
7951
d558
0753
4c21
5736
bfe7
4bb8
3454
346b
6e0f
644a
1040
4ceb
4a32
6867
1469
146e
145f
f190
f15b
496b
0e67
436f
a5a4
a668
6a49
f14a
12d5
6727
8c53
5236
8a29
a7e7
31a6
6941
746c
5068
3055
304c
4bb4
4b5c
4b96
7538
cdfc
3451
4ce1
4c89
4cd3
4c05
5fcd
d153
7f9a
5e53
4278
4de6
6c42
d915
7358
5338
3627
3637
3155
6955
657b
67cd
6120
4861
3830
4b84
456d
4dba
3374
7764
f1f7
e1ed
bdca
bb31
4970
4774
f272
7845
7657
6678
dfe5
6944
5438
3274
3a53
614d
4bab
4470
4479
346f
344f
4668
46cd
466a
4c09
4c19
4c13
4a35
4d87
4d06
1476
f1b4
f1a8
5872
6d70
a4cd
7231
5930
a5db
9aca
b253
1af2
5673
5733
326d
db53
3870
344b
346a
4ca8
4dc0
4d2b
149b
1481
f168
f1bd
f1a6
7176
d1a0
8d53
7859
3765
bfa8
7265
4e77
6b36
8362
566c
7030
6c46
6c49
a001
8ac2
e582
3577
9ccd
c633
d61c
f753
f7e6
6945
694e
6320
4b3a
4b2e
4563
7056
641e
4ce9
4d2d
4d05
f1e8
7131
5570
496a
5034
7946
6c5a
6256
4031
4679
4636
66cd
fb29
6537
3257
6369
5061
3858
4b9f
4bc0
4bfa
75a9
3466
6e51
6e17
4c3a
4cb3
4c16
4dac
4dc5
4dc7
4dd2
14d0
1412
f19b
f1cb
7178
7152
d1fb
4e2e
5261
684e
734c
6d46
6d42
6749
d04c
6255
8ecd
4b9c
45ea
4576
4464
4137
646b
4c04
4df4
4da0
6f65
14f8
f133
f1d5
5890
7872
5566
9053
d785
7844
6849
7955
b087
7634
fecd
3251
7459
3843
4b7d
456b
7573
7568
4175
1264
644c
4c98
4c8e
4d9b
4d28
4d0f
6855
146d
f1ab
716e
7132
81c2
9da7
a497
5262
b7b1
6a43
6d49
7546
6c58
ae11
d5d1
74b5
9912
##5F991
5536
6942
0d9a
2553
6720
4878
3041
4bd4
4537
4d91
4d8f
142a
1482
f1df
786e
d884
a493
4365
9bcd
a5cd
4769
364e
77f2
ccd3
0608
4e05
5235
3141
4675
4c03
4cea
4cc7
4c15
356c
336a
7370
140a
376b
af0e
b7cd
f141
7746
101e
4e0c
##ED
6144
7470
4b95
4be0
4bf2
0821
4cc2
7357
7768
5178
14a5
14a6
f1c0
f1b7
6d6c
9dcd
376c
df3b
4e0b
1c53
734e
334a
d0d1
7646
bad0
7755
bd40
4677
473b
5677
a802
306e
4bf6
709c
5762
13b6
4dc4
4d16
734b
5163
f1f9
3731
88cd
3661
4e74
6b76
6665
9ee1
b06f
5264
3342
d032
769b
3356
62d7
bde4
a653
1602
52cd
6ecd
becd
f953
324d
634e
7433
4bd1
346c
6475
4c96
4dbd
6f62
ed88
5169
f155
f1d7
1db3
b8f8
556e
ec76
6a44
d04e
7651
f6fe
b004
9553
4e2b
bc02
506e
4b3c
4bd2
6e6c
5731
13e8
4c86
4cda
4cf8
4a75
4dd6
1430
14de
f136
f185
7171
4e6c
9ef1
cb7b
b56e
4263
7669
1644
0ccd
3679
3ccd
a612
6969
6778
3868
4b82
3455
107e
108b
4cad
4c9e
4cc3
356d
2dbb
5177
142e
1477
140e
f173
f1ce
f197
f105
d11d
a14b
7852
d85b
1f0c
bb6e
4e78
0953
b053
f0cc
4276
4e1b
7752
a75d
4733
d906
5474
324e
3872
4bf1
4f6d
1055
4ce2
4ca9
4cd7
4c02
4d99
3366
73cd
b1fc
14ad
148a
14f2
1413
f13f
f1a3
f10c
786b
0e3d
79cd
5331
d7cd
7037
7143
5037
3742
5917
6002
bff3
0721
7635
2e37
0284
6e44
4df2
1403
1445
f1f8
58a1
7830
7da4
7d53
4332
3bcd
c9cd
a262
87cd
bc8f
6ad7
d28a
065e
1acd
4c29
5ed7
59f7
6671
c50b
3169
652b
3a37
634f
acf3
3065
3834
4b9b
4b7a
7520
6eec
6e4d
6401
b467
4cb5
4cd6
4dd0
4d82
4db6
5867
d1b7
7858
ce91
b025
ebcd
1b3b
b533
f14e
ba81
20201021035
12a6
79da
9b53
c3a4
d61f
e75f
6779
4b5f
4567
4579
7578
cdf5
cd52
6e72
5730
4c93
4a31
4d95
4df9
33cd
14f7
f1e0
f1aa
f1f0
589d
6d68
9d27
e4a1
e453
7f3b
6b79
5b61
a7d4
125d
cf4a
f553
290f
6b56
d20d
f53c
28de
4867
6335
4f69
2384
6e4a
4dbe
4d3e
4dab
ad65
7372
516d
14ee
f172
f1c5
6d74
7120
4938
ebed
a5c1
8c96
6f59
f146
d012
b049
6251
7643
7641
d7f8
9046
cacb
b00a
8252
GA1
5637
5679
5ccd
72cd
0a53
3263
2f55
253d
5077
4bdb
4b8b
4f71
70cd
64cd
08d0
4cdb
4cb6
4c18
4d8d
0fcd
7331
1418
f198
7169
d1f5
a853
6297
7ee6
5e6d
4377
b094
426e
754d
354c
7649
df53
client111
b2cd
5464
6533
3262
255e
3068
4bbc
4561
4471
466e
4cc0
3567
4dd4
4d08
4dc3
6879
14dd
f104
f1f2
d1b3
a81e
d053
5960
d230
7938
c3c2
4768
624e
d2e9
a344
a712
1b88
42a5
6ccd
6ece
a615
dedb
251f
accd
4bed
4b88
6e69
6e4f
10cd
4631
4cc1
4cfb
3551
6fcf
f11d
3fcd
5f73
d152
ef7d
d494
7863
d885
cf75
6b38
5330
9b21
cb79
d92d
4766
7674
a27a
5667
d141
5cc8
16d3
39b7
4c2b
766b
dacd
fb53
3171
5462
61c8
6155
6330
304e
4b39
4432
2353
57d6
64ad
64ab
0881
1422
148c
f1f1
f151
bdc9
7857
4e3b
6a6b
d2b5
f0cd
d0d6
d91f
bc1f
608b
870f
bccd
2028
7472
3022
45cd
75a0
cdc7
2d67
14cb
f19d
f159
f1eb
f1db
58ab
5fb1
91cd
7dcd
df63
4e21
6c38
d090
d214
9a62
d56e
5b78
40f1
c5cd
d66f
a553
8ee5
d63f
e953
2883
0376
5079
3851
4bb9
4f76
cd68
1353
4c39
4d2f
4d3f
4d92
c85b
6f20
6f0f
140d
1478
144c
f1f6
8d97
cf23
8f8f
6b31
ca0d
4c5f
7359
bf15
d653
d58c
a711
b0ae
5989
973d
a6c3
c7a5
fccd
##114
3177
6949
2058
04cd
326f
74ec
5065
030a
4bb5
4b8e
4bb7
4f33
3476
12ec
4d9d
4d5f
4dd3
4d1a
1431
1464
1434
1491
d1b5
a13a
7867
9853
3654
4e3a
ce56
536e
7620
4e1d
d003
335d
c255
d2c9
9f51
4ecd
4e22
4ed3
566b
5734
59fa
5579
7735
b2aa
d737
d5e3
6931
6362
742f
3049
4bbd
cdc4
3456
6e8c
4c08
4dae
4d8c
6f33
6fd0
140b
f1e1
f1b0
d151
9f24
4e2f
6b20
d2ec
4978
1e53
d90b
4770
d79f
4c5b
4e11
725a
14ba
d7f0
d54e
c3dc
ef53
1624
96d9
bcfa
d2ff
d7a0
0a06
3058
4b9a
6e20
b4a0
5135
147e
f192
f19f
f1fb
d1dc
8da1
d4a1
a81f
6a33
cee8
8a73
8bcd
client114
6242
d042
bc86
02f6
7782
f253
13a8
2953
cec7
54cd
2884
0adf
03bd
48c1
3071
3856
cdb1
1063
1053
142c
149f
6d1c
2153
88e5
4e75
6a6f
6b66
1a9f
3e53
605b
7662
3649
d4b8
5c83
d5a3
7637
c6cf
7478
4b5d
4b86
757c
cdaa
4cd2
4a99
3561
244d
5175
81b6
d422
cf67
7fb5
d024
f7cd
6f4a
d91a
5c06
9ed6
d6cd
546f
63d4
304a
4d5e
4d1f
14ac
1483
14e9
1440
f1d4
f1cc
d4e3
366d
ee53
60cd
bc03
476a
4c5d
7846
14b3
5f53
8ef0
aaa7
b9f3
b953
c2cd
d7ee
f52b
289f
3070
4bc5
4b99
4d01
0f9d
b153
f125
6d8c
d85d
a8be
dfb6
0923
627a
ceec
ba34
c053
07cd
89cf
a7cd
d672
f14c
82dc
d5d6
b4b0
d745
e353
2020110
3635
c9b0
ce87
3272
7442
dbe5
4f36
6435
4cc5
4c83
4dad
6820
ed03
146f
14f4
1455
f1e3
f116
21bd
71d5
d18c
d4da
5d13
7875
78d7
fdd9
a478
a414
593f
b095
2b25
b938
bc39
766d
b762
334d
12dd
b143
6217
bc53
7f53
075e
298a
3e85
76e9
85b9
920f
a753
a953
b6dd
bb5a
##4p
63e7
dbdc
38cd
1254
4cf0
c867
c8cf
7731
d453
a429
a8cd
8857
4964
5e94
5bc5
fc9a
1594
900b
f653
02cd
661d
b2a9
546b
0db7
5075
030e
4bb0
1174
4cc8
4cd5
3375
7765
143f
c1b6
e153
d828
bb79
6a59
9e53
5b57
426f
a366
b3cd
d046
92f3
9282
9cd0
ba4d
27eb
b6cd
c753
3168
2e35
ac7f
4be1
2aae
807c
4c2d
4c14
4cb0
4cee
4ca7
4d8b
b105
14a1
71b3
8dcd
d49a
9424
9498
982d
4e67
d0c8
536a
5bcd
c09e
85b8
e7cd
5630
02fa
6c1d
f011
b6f5
1ccd
76eb
8afd
c9f9
d208
d2a8
d522
##wj
316a
25e6
db7e
3077
cd56
4c8c
6f81
b1fe
149a
f15a
f126
f115
f1e7
6d20
c1c5
d438
786c
fc2d
85ef
a249
8912
cf53
8cee
9353
d5ab
1953
4e27
a9e9
cef7
d2cd
d628
e753
f22b
2ef1
4877
4b29
41ed
6474
b4cd
4cce
4c3e
4d29
686f
14ea
14f5
14c7
14c9
14f0
14fd
f165
f12d
f15f
f1d0
588f
d42a
d4cc
bd57
9d53
f4cc
6c6a
fa53
be67
4062
eb0b
0bcd
4269
936e
c26b
f790
12cd
14b4
7658
d00d
ae10
9f10
3739
56ce
bacd
cedb
eacd
4879
63cd
4bbe
4fb3
4662
4ccf
355a
4dff
4d93
f18b
f1fd
812a
d49b
dd09
cf6b
bf89
df98
cce3
6a20
d269
6053
6c4a
6c4e
3659
60dc
9a16
a589
8353
99a6
a62d
bcf6
d736
e6cd
##jtV
655b
4f67
cd4f
b4ac
4a92
4dfb
5130
f1ca
f1b6
f107
9421
cf25
cf8c
cf05
7f6a
5a07
6b25
4933
fe39
b0ce
85cd
4264
4de9
14bd
b84e
24bd
24b5
d009
d245
cff0
97fd
1a11
4e02
59d7
7738
b3a7
b7b2
bed1
d808
54a1
da8b
0802
cdb4
1331
4cbe
4c8b
4a3b
14d9
f184
6db5
d1ca
81cd
a163
a1c6
bdd9
d871
a4ab
c471
cfc5
7f3c
626f
8afe
ec93
a675
5032
6543
14b6
6c4f
76f9
a6f1
d2fb
c34f
bcd1
9659
5c53
6baa
8b45
af49
0232
2eab
76ce
967b
c6d0
ce04
c953
d7a3
50fe
3043
5764
51a0
f16d
5891
71cd
d43a
5da1
9fb0
6c20
6a7d
9a14
9a53
ab84
9e14
3c30
f575
226d
8760
7749
b71c
c58e
17d5
c2ca
b2c7
c94c
394a
4776
4e08
79d7
8953
c609
facd
6536
3254
48fe
4837
ac95
1299
466c
4d39
24a3
6f7d
14c0
14db
1444
f189
d166
d1a6
814b
8153
c19d
c102
e4a3
8853
bb69
8f65
9a95
5e3b
d5ef
5b95
fbfe
0b3b
e5cd
8297
684f
6692
a84e
d2d2
3358
d517
f7f9
e5ab
202011120
09e9
6639
6bc3
c6ab
c7e2
20a4
0a03
326e
3aed
2594
dbbf
4bf7
cd6d
cdce
1292
4c92
4cfc
4d2c
4d17
4dd8
51ac
1472
14ed
144d
9153
e136
7854
4961
ce68
ce5a
ae52
406c
fc3f
bc01
c572
cf1f
d7f3
4037
5686
a38e
72f1
c3df
7bb7
8553
1548
1af7
37a0
4c22
5e82
66e4
6c07
bcab
d622
3146
6368
4ba3
2333
b48e
1377
4c3b
4ce0
3573
4df6
14c5
14cc
143d
14c1
1493
f17f
f18c
58be
588a
d158
5d5c
d8fd
a4c3
d066
a5cc
5cf1
f9cd
14b7
bc88
3752
8210
f2d8
a2f6
c653
7a4a
b95b
3e86
6acd
77ee
b92b
cecc
d80c
6568
28dd
4ba1
4173
cd5f
cd4d
14fe
f138
3fa5
d12b
5d8c
9dd3
e49a
1fba
b839
b8e3
cf3e
d0ed
d27e
ce65
b5ef
b5ee
522c
b7ac
10d7
a004
d513
abb3
8541
a30a
2b4f
1fe4
37eb
76cd
b3a9
d625
##JgAAUumOkw
54eb
0d9e
6190
7557
cd27
1092
80ea
4cf5
1463
142d
1460
141a
f191
f19a
f1b2
f18f
7172
d48d
5d74
a4ed
9892
cf89
cfb6
3667
5e6e
be2e
d5cd
d5e8
90c7
b9cd
c56e
8969
a9f1
d775
26c2
734d
14be
d842
b0dc
d2ee
6f1b
a5df
771f
7a8b
8745
e949
17bf
2ecd
56b2
63a6
aecd
e576
5435
0af2
3a5d
3ac3
6389
cdcd
b423
24cd
adae
1470
1484
14aa
14a9
d123
d1cd
d183
e1a0
bd75
84da
f891
cf7d
55cf
5365
b054
d520
d59f
9b98
cb7c
bc70
4292
97cd
4e13
6c52
d14a
5bae
bf53
83f2
c759
bcb7
cfe9
d234
d2b3
2826
28b3
0ade
633e
4bfe
113a
cddd
cd05
13d5
4a36
4db9
6fcd
f122
f186
3faa
21cd
d1ba
d49f
e4da
8821
afcd
9f9b
8fbc
cc7e
62ec
d26b
8a75
d594
827a
f140
4e1a
cf1a
d2ed
d210
0b1f
d74a
6086
3cd7
d644
3c5d
ad43
5eb7
9bf8
c9e8
cef9
f2a4
0d53
61ae
7423
4bd3
44db
cd24
23cd
7098
702b
138e
4d90
4db7
ed12
14f1
14af
f132
e110
d4d1
78cb
a8e4
88f8
afa3
bfcd
7254
d062
d084
9eb4
1e23
7991
a5f4
14bf
c84e
c258
ca81
a759
0f51
26cd
60b5
6ca0
970b
a673
be05
bcb9
cea5
ceab
d676
d921
4bf5
4b5b
cd44
4c84
2d05
7770
14e1
14d1
14e7
1446
ef7b
d814
fd53
f8cd
afb9
9f0c
cce1
5e52
ae53
fe7b
d538
f079
a074
3b95
bc20
5c0a
290b
a378
7630
a274
a714
d04a
c0db
b91b
0b1a
9de8
dce5
c353
85f2
c0f3
17ab
3ecd
4704
5635
59e2
5caf
8b4b
8ccd
9cf7
96aa
be02
0d39
2f73
3a41
03cd
4bfd
2327
64ac
1076
4c3f
4da6
14cf
1421
14a7
14fb
f1be
3f2c
5d57
7df6
d81e
fd10
9472
f4e8
c453
b8e8
982e
a861
cf3d
be03
47cd
f323
d037
d14d
d6f2
62f6
6bd7
83bf
4337
02af
470f
8753
cefd
d6e2
fbe6
323c
105c
4674
8042
13d3
35e6
4d07
b1d2
147d
147a
149c
14d5
f1af
f1d6
5da5
d868
7fd1
6a77
6b67
d09c
7efe
7b3d
ce4b
ce84
b09a
d5a4
c974
c961
f14f
6c51
5ad7
2ad5
d24c
2259
07d3
b72f
fc40
b353
b3f9
4ea3
5234
5aaa
8909
8505
a60e
a9a4
2845
3266
25b2
748f
cdf3
cd88
2a53
4d84
2dcd
682a
1496
f1ff
f19e
f1bc
f1ae
58c0
d4cf
7d76
d87f
b8e7
7f88
5a30
62bd
627e
7b97
ae96
d532
5b0b
d79a
60db
c25e
a740
80ae
6ff1
9245
cb1c
aba8
e5ae
3939
59da
6ca7
76c0
87b6
b3a8
d62d
d7be
f599
6920
32ee
615e
dbcd
cd35
2afd
4cc6
24c0
0f2c
146c
1429
f1c8
f1b1
6d9e
8da6
9187
d449
5df7
d888
b8d0
f85a
e8a4
bb90
bfa7
1c01
5a93
6c25
8e53
90c1
a595
1bfe
e076
5c69
b57f
07ec
c970
47ea
904f
d68e
d282
ccdc
e689
eb8e
52ed
2bb1
2729
9653
f281
a08e
85dd
a956
95f9
06b6
1e07
a7c3
cecd
ce89
cee3
65f4
0ae2
0453
2f4c
6782
611f
4862
182c
182b
744a
4be6
75d3
b49d
b4c6
4c12
4d0e
24f4
0f7c
6827
f178
f114
6df0
c189
d4d4
d433
d4d6
d889
b85d
a83a
7fc6
dfcc
cc9e
de9c
ce77
fab5
793b
fc7f
ec34
ecbc
d934
c325
f264
c2ac
d601
e845
d91b
6c11
c25c
cdee
83dc
6de1
a5f0
a5f7
2b06
5eae
7809
ce8f
d70e
285a
3ac1
2ee8
4b2a
cd3a
2375
0260
7040
0853
4c0d
ad37
14a3
f16a
f15e
3fa4
71c9
c198
bdcf
d823
fdf6
1f8e
b867
5a70
4968
ce37
9995
d5ec
5b3c
4020
fcb2
9b20
e0c5
a3ed
d7ce
6c5e
d01e
24b3
5692
591b
5684
b00b
3713
9ffb
b088
df15
fcd9
60b3
2307
0b4c
e3fa
76d1
76ca
9ee3
f7a7
04b7
3acd
2045
61fd
dafa
cd08
cdc3
6482
4663
468d
4c1d
edce
ed53
f13a
f156
6dce
d1b6
d8c1
f451
c422
9f97
0957
d099
d266
9eb0
f094
f567
d045
ae12
62df
d656
a74b
d64e
9b8a
de4e
9d43
8c43
9946
b337
0671
1753
66a5
77b9
9edb
ae85
bbfc
c6cd
c6e1
d75f
0413
044e
2512
637c
30e7
4fa8
4ff8
45ee
75e5
6e4c
0870
0871
14c8
f157
d1cc
9122
a1cd
ef89
dd33
d8f2
e493
98cf
cf68
cf7c
cfa3
7fb4
6b37
7b2c
ceba
aa76
d560
bcbc
b572
b56a
c533
d788
d6de
d6b4
c6ac
14b0
d036
d087
62fd
7c1a
768f
9f59
830f
d5f7
833b
6205
be04
ce29
d9f9
d2a7
5494
65be
2503
670b
63d0
ac01
1192
1153
4134
cdac
021a
64d5
b453
358d
24fb
3d25
add3
b101
5132
14c2
f1f5
f1ef
f137
f127
f1c6
f110
587c
1dd8
718b
c1ff
a173
a188
d4cd
d45c
5d75
bd53
d881
a426
e486
1fc3
98c7
a863
cf8b
cfc7
e87e
6cfe
597a
0c92
d503
95a1
1584
b7ea
4e40
24bc
d008
b0d9
d24a
d685
62d3
aada
e381
f5da
8b1c
9285
f2db
cf40
d642
5289
a2e5
b55a
c5a6
0b53
5ed9
5537
6ca9
7e85
8acd
9739
a61a
a3a9
bbfd
bfe8
d62a
d7ab
e7a7
54ac
61af
612b
4562
6ee4
086c
0882
1007
4d24
4df7
6839
6fed
ed1d
b1e1
14ff
141f
f1b8
f119
f1a9
5899
a190
84d3
942b
e468
cf9d
9fab
6b2f
d075
e672
ce5f
ba7d
aae4
9ae4
aeea
16c2
9b95
cb65
cb7d
b978
a56c
bc73
c5b1
a394
76ad
d773
066c
7742
d013
0ffa
8843
cffa
e01a
60a4
d2fe
d54f
c913
7785
d559
ccc0
e952
c5f8
09d8
19e1
3e88
5b4b
56cb
853e
99c9
9576
a7ca
c73f
cfe0
d624
eed6
ebe6
f93e
fc2b
697a
65cd
32d1
2e42
61cd
cd0b
cd76
cd07
23c5
6e06
4dfc
6f6b
5108
1437
1441
f13c
58b5
d12f
c129
c1b7
e137
5d9d
5d9c
9db7
d8c4
d8ee
f4da
f4e9
a868
a8c4
f832
cf6e
cfd7
ce57
5e0b
1e30
796e
b093
d568
d5e1
2b74
cb7e
bc77
d901
a267
a266
a792
27cd
d0a8
14b1
d034
cf18
5adb
9844
4032
d516
bc1a
3e10
d72c
a2ca
6cc1
7333
0702
5807
5ee9
62a7
761a
7efd
8232
afe9
b93e
b3a3
c7b9
ce88
d673
d2a5
d202
d7e1
2f72
3a3d
2524
2e53
1854
4f37
75cd
4167
3461
643e
68c1
c832
ed09
ad14
b1cf
14ec
1461
149d
f174
f1c4
21aa
d187
7dc1
d803
d87a
fddd
940e
a837
a83e
f853
5a97
6c2d
ba53
faed
99cd
7a78
5364
a02a
b5cd
3c6c
d92a
299a
937d
c3cc
f2ba
a7c4
4640
6d43
d049
cf17
5c8e
66ff
6f19
0b1d
12ef
c0af
bac6
aa1f
cf4f
ebb3
a75c
0b27
166a
1fe1
15b9
370c
3feb
3cfb
5aa0
79a0
a6d7
b9e1
ce07
c61c
c2a3
d61b
d7a9
d57e
d5e7
32ca
32a5
0d17
25cd
50b8
3061
388e
cd94
34c5
2c3f
64ec
6481
08a5
4ce3
6887
6f3a
b112
14f6
f1fe
f1c7
5893
5881
d1fe
7883
9d20
d85f
98c8
e893
7f24
ccc5
cca4
5a79
6c92
6aee
d2be
ce24
ce66
8a2a
1a57
0e99
feef
60ea
5bcc
9b96
fb33
1b6e
b5c0
e36a
d041
cf1e
884c
d2d9
5916
c0da
64be
9c81
5bbe
ec1c
ca89
c5d7
274d
9ceb
a641
8f41
9e41
e5a7
56cd
56ee
5bcb
7638
9ef9
a9ee
cae9
d7e2
d23b
dcf8
0dec
38fd
11f1
cd95
2a66
1085
0813
4aee
0f7e
ed7d
edc1
adb8
b1ea
1454
1467
147f
14ca
14f9
f13d
f13e
f1e6
58c1
5887
58a3
1d11
717f
d1df
d105
8dde
e1f1
d4e6
ddfe
7d1f
7df0
d8cb
843f
94c3
f426
1fd3
1f07
bb61
bf75
1c7e
6296
d0ec
7b6d
1e9b
b07a
5b33
f053
2b7e
fc2e
a5fe
c521
9c96
834b
176d
260a
6a40
d6fa
4035
c03e
6f1c
603a
26fa
64b9
6ac5
d65f
8e1a
c6f2
aa13
cde2
7ffc
0742
9f53
e72f
06bc
36d7
76b9
a7a8
c3a7
ce02
cef0
ce81
e906
f6a4
318e
2ee3
4836
1853
acd0
4bce
11b0
cd01
cd23
cdb6
0240
6406
b475
08d6
4c07
6f86
143a
14d7
1411
f17b
5892
58b7
6d75
71b0
c18b
a1ea
d415
78cd
dd68
d8f0
9473
94df
af6e
9f0d
9fb9
8f4b
df8f
55cc
627f
7b9c
ca0b
0e6a
1e2c
a0f5
cb3a
0b7e
22b4
86de
f145
3549
d03b
a00a
46fc
f6fa
8ac9
aad8
cc1c
a345
22f3
d0bc
74b7
4719
d724
d729
dff2
de11
5bb0
7a88
278c
cbdf
d5f0
173b
2b2b
42a3
56a0
52a7
5eb6
7acd
7ccd
7be2
8906
9ecd
ae02
cbee
ced8
fca9
f9d1
fca7
fcfd
31d7
0d9d
2f98
25f5
2eb7
63c1
db01
4bc1
4bbf
1120
44f9
419d
cdb5
b4a5
107d
1365
4c82
4db2
4da9
68a9
ed2d
511e
1468
1428
148d
f12e
f16c
f1e2
f1d3
71ea
81aa
5d9a
fdcd
a4d6
9483
f408
b8b1
b8cd
a873
f825
f8dc
cf85
9f27
8fb6
ea58
7e93
535c
9e35
53c1
d530
d5ed
fc98
fb79
3b55
3b38
8c71
3c99
8565
e5cc
a9ea
17cd
b29e
d772
d762
f7ba
b6d4
071e
a51e
80dc
6a19
d0b1
b28c
0253
8c46
be43
b336
09e2
167f
1efd
7b05
967a
96d0
abf8
a57e
a5cb
b6e6
cec4
c7a8
cc28
d209
d23f
eca9
69ab
2532
db2e
1142
2a41
64ce
138b
4c60
2439
c866
6f01
73e6
1473
14e3
f10a
f112
1d75
d1e7
a157
a1b7
8469
f817
cf92
8f0d
5a6a
6b9e
5990
d291
ceb2
bae4
0cac
9a01
eebc
1e72
fc2f
a53a
427f
e301
8298
9703
56a1
5a40
a62f
86b1
f142
d04d
d043
d019
d03c
c14d
d243
c03f
d512
77fb
a386
5ac8
5c1c
d257
a216
b7f7
42d5
7756
c58c
d646
cf5c
a64c
f783
7ccf
5c43
dcc0
f3f7
3b53
3e8c
62cd
6b06
6aaa
7622
820a
890c
a797
bec4
cead
cfef
e6c4
e7ab
f63e
fefa
fca3
31dc
31c6
65f5
2530
0270
70f2
0883
4a2e
4d1c
2425
f169
81d5
a10f
d4de
d428
5dcd
ddd0
9d2f
d89a
b8d9
b8e5
98ea
98ac
cfc2
cf7b
af30
dfaf
ea60
cce6
ba5d
aa5b
faf5
79de
d570
d575
fbcd
b9f5
e072
bcf1
5c96
e53a
a392
17c8
a2c5
d7e4
24b4
6ad8
7ad4
8e1f
d25d
1ff2
f34e
3681
cf49
8a1a
c5da
fcef
c641
e752
59bc
66d7
7927
7cb3
961b
ab53
ae27
cbc9
d73b
e578
697f
69d9
325d
03b8
039c
035e
61a7
5092
cdde
cd8d
2335
70f4
2d27
7391
b19f
512c
145c
1426
f14b
f179
d1c5
d12a
d1d4
d45f
d417
5d7c
bd2f
785e
d81d
d8dc
94dd
e4c8
8892
cf70
ea39
6a01
ce76
aeb4
3e24
d5ba
d584
2b2f
fb2e
b96c
a523
89f5
c973
a395
a39e
8294
a292
926c
97c2
8761
7540
24b6
a0d7
f031
7211
70d1
d5d5
9f1b
fc5a
8b16
5bb5
c7fa
92c9
ec53
cf59
dd40
0b4e
d5ae
06cf
0fe0
1bee
46e5
570b
5909
5e04
523c
5af9
6edc
7b53
86e1
8fe6
8b04
b9dc
c808
c9eb
d90f
d57b
efe6
20f2
28cd
0aea
0ae8
0af8
2e72
63fc
742e
50e3
ac10
4bd6
cd3e
64f0
4c9a
4cfd
68da
b109
5133
f10d
f161
f194
f1ee
f106
1dcd
1d86
d1d2
917c
91a3
d439
bd95
d8b4
d8d9
8453
f40f
f4f3
882e
cfcd
7fcd
09cd
5a92
5a91
5a5f
599b
ba3c
aa98
9a97
5e01
be28
ae5d
fe2f
d52e
f09b
fb6f
fb7f
a564
bc66
bc9a
153b
8977
a36f
c357
f2b2
964b
e798
26c5
b668
365c
d6fe
cf13
1311
cff3
f694
d289
7001
6216
dc8a
cc1e
bb15
672a
6bd2
8b82
ebb1
e58e
97d3
330c
73bf
8ce2
9f42
0234
0e26
231c
4905
6c24
6aae
73a7
8626
8b08
8af6
c9b3
ecae
f802
0411
2f57
dbbc
11f9
752f
23f6
70ee
b486
13b9
24c8
0fcb
2d2a
ad7f
adcd
ad07
1435
146b
58fc
6d9b
918a
d4a3
d445
5dfa
bd83
9471
c4f2
f877
f896
cf74
cf78
3992
af9e
4e5c
5a37
6aa8
d0ea
d077
59ad
ce0b
7a4b
5e30
be7b
ae9a
ee3b
5bf5
c02e
2be0
4060
0b96
1b9f
7c32
7c90
e90d
270a
d62e
b0dd
d698
bf1a
0e12
668a
d651
f2fd
e682
2912
c003
42d3
abb2
b3df
fb8c
e081
3b89
3c53
9f52
7c53
b2c6
83fa
09d7
0bfc
29e9
29f9
56e1
59b6
6b2b
7606
8e8a
9b0c
9be3
bee9
d61d
d537
f6e5
fb08
311c
20e3
2890
0495
67cf
0406
1195
4472
cd72
cd34
cd5a
cddf
34f2
2ccd
6e39
57da
2abe
b4f4
b428
138a
24ee
24a7
244a
6f2a
edca
73ee
b1a4
1438
f167
f1dd
58db
1dbf
1df6
2155
5fcf
d14b
d125
d1ee
c133
5dfe
dd9a
d893
cf2e
cf69
cf73
cfb3
cfdd
9f0a
5ab4
ce92
992e
9970
ca76
be6b
fe53
3e14
b06e
dc70
d56c
9bc8
a5bc
8b90
1b70
c59a
7c3f
a39f
c394
a79f
863a
12f9
cf15
a51c
dcdd
d4b5
d4bc
8acb
700c
971c
b0b8
b0b1
f349
f2d9
02dc
f58e
f28f
a2c4
530f
fcce
3b4e
8e44
a3f8
d752
0bc3
1eae
1708
5c07
6c0f
6c0c
9985
a73b
a3e5
be8f
d6b8
32ea
0dde
0d58
67c5
50cd
acd6
ac4a
3027
757d
cd58
7078
64f1
4a0b
4a98
100c
24e5
0fec
c86a
33e6
73cc
1414
1436
1439
14f3
14c3
1488
140c
f103
58ad
7129
d1b4
d1f4
a117
e1cd
d40a
d46e
5dbf
dd3f
9d97
d8b8
a47a
c45b
f887
bb70
bf73
552c
6260
6b03
d0c1
5992
7b9a
7b99
d263
de2d
ce2a
ba30
aa53
ca84
c0e1
fc60
e0c3
c5bf
8c20
9533
7c23
85b5
e92f
5263
47cf
8201
2277
d0dc
d7f6
e043
d2d7
5694
d4b4
401d
b036
568c
5317
5acb
22fa
d2f2
92da
1ace
eacb
672f
1253
a282
93d3
72e5
5bd3
f25d
3305
6ccc
a353
e3f8
06cd
06e7
17c3
26c6
43e3
5bf8
5b5f
62a5
73ae
86df
a9d9
a596
b6d8
bb0c
d6e3
d6d3
d7aa
fbf8
6923
69b1
2881
0a8d
04fb
32cd
25dc
1108
4ff1
75af
75c9
4114
232d
23e1
6425
b49f
13be
4cf1
241d
68de
ad68
ad66
b1b2
1433
14e2
1442
f16e
6d2f
21f7
5f05
c1c1
c1e9
a158
d40b
d467
d40f
d83f
d8e1
9420
949b
b8a4
a879
f85d
72b8
5a60
d0e4
7e53
7bc5
7bde
5e7e
be60
1e4b
1e68
cb66
1b3d
1b84
9528
a39a
22b5
9298
9775
062f
495e
b04e
24b9
d2d4
ce1e
7ad0
d0bd
c01f
d71d
9a17
7a87
62e1
fb8b
90be
934d
bbb3
e542
ae4e
8bda
5306
b725
abdd
fba6
935e
ecc3
a945
8f53
3cc9
2983
22af
5ea9
6ec7
6610
723c
7929
8509
9677
9ed5
aec3
a9a9
b6af
c9d0
c7a9
c579
ca21
cc0e
c597
d67a
fbf9
287f
2f7e
673b
03e4
61d6
cd8a
cdfb
641b
10c6
08cf
13e5
c892
6f7b
ad57
143e
f1c2
3fad
3fa9
5f7a
d18f
8d36
a1ef
bd9a
bda7
d865
d81f
e441
f4ac
b86f
b87c
a8ac
f89b
f810
af14
ea62
5a90
d094
8e0a
b07b
dc77
c06b
b5b8
c562
9c98
42c5
a36b
d620
4e15
6c5c
3640
d14f
d2dd
8ac0
bff6
bad2
d283
64b2
d54a
2243
b313
eacc
ee1e
b24f
72dc
2bb6
3304
b7d9
f006
b54b
a30c
1ce9
0621
09f7
1b4b
1906
1ca9
27e5
3bfc
42cd
5ef0
5e8c
5aa5
6b5a
6be5
6cfa
767f
79db
89d2
a708
bee7
c6ee
cfe6
d204
d633
e9b6
f206
fb06
31b6
6922
1723
28e7
32b9
3a38
03c5
2e81
61ed
db33
387c
cda1
cd5b
cd87
2cae
1274
6414
08cd
1352
4c90
4d97
24e3
3dac
3dba
c860
c87d
f1ac
f12a
f1c3
6d0b
3fd7
21b9
5f0c
d114
816b
d4ff
d47c
bdab
78b8
9d63
9d9f
9d28
d81c
f4ca
b81f
a8ee
f8a1
bb74
8f7c
8f3e
7e60
7b98
8a31
9934
1e99
7920
8e25
d5c5
f06e
0b28
5c9f
7cb0
f37a
176f
82b5
970a
279b
f775
d6b1
595c
0710
d033
12f7
7012
d219
77fd
600e
469f
5ac0
6ac4
ccdd
d081
b0a7
d72f
fad3
f5db
608c
f581
900e
b2ef
2b8e
9082
730a
730b
394d
bba4
063e
1b5a
29a3
59f8
56c0
59d0
5e27
532b
6ab3
76c7
79aa
aec2
d612
d953
d5c6
e328
f50e
31e0
659e
18cd
745e
744e
ac4f
11bf
570d
649b
6485
b48b
1025
104f
8028
13bf
4d5d
249d
b199
14ef
14e6
1449
f102
d11f
8d9a
e111
5d56
5dc3
bd92
bd58
bd18
7d91
d86e
d859
a40f
a4ee
f4cb
cfae
e831
9fdf
8f05
5abc
552a
d0ce
d22d
ceb4
ce6d
ce6b
19ff
197d
be90
43e1
d572
d5c4
60ef
9024
4072
fcff
a520
1bcd
b573
3c3a
d93d
e96c
a370
932a
f279
a620
f149
12c6
b14e
f84e
76f7
d2e6
5c87
50da
d583
d0b9
7e15
8f1b
7783
aa8d
a2d4
878b
7bdd
fbb1
ce4e
8b4d
c352
9641
1ba4
0be7
5acd
6fff
6ecf
663e
7b07
7cae
86cd
8bf9
82ab
a613
a9f7
a9ef
a50f
aaab
beaa
ceaf
c909
c706
c2aa
c599
deaf
d7e3
d7c3
e73c
f633
f508
28a0
328b
3a90
252c
25e9
0392
03e9
5096
db6c
ac52
45f3
3491
2358
0229
6e05
57e0
adb3
1474
1498
1486
14d2
f130
f134
f113
6d02
3f04
21bf
715d
5fc0
d16c
91c4
91fb
813e
d4ee
d409
5d61
bd94
dd78
fd77
a4f4
8485
f4c7
a8ff
9f33
df9f
5ae4
6bc4
d05a
7b9e
ce9d
ca7c
be14
fe7a
d5d4
5b9c
4092
8b84
3c9e
852e
15cd
c99a
e963
d77f
b7cc
a669
525d
d014
60d7
d218
56fe
6b12
6ad9
869f
22f1
d08f
62f3
b0b6
c341
52cc
d2c2
8316
ba8b
a7db
f0bc
60b2
43b9
ad41
b959
d5f2
1988
463e
5612
56c4
6208
66e6
6202
720f
7bc9
9fe2
9a0c
aecb
a6b2
a7a0
aab3
b7a3
b984
c779
d98d
eeac
f234
f5b6
6904
20fc
28b8
0d5c
4817
db3e
ac18
4ff0
cdc9
239d
6e2f
2af0
b43b
1364
3d19
6f87
a168
a15f
a1b2
ef73
d401
bd7f
78d5
9dc2
9da6
7d61
d89b
fd63
fd0b
fd15
849d
8426
f424
cfc6
cfd9
3930
afc1
bb2f
dfb9
5a66
6a3e
62de
d295
de38
0c73
ca68
1954
0e38
be36
aeec
ee79
905a
f068
c05b
b991
0b6a
b5bc
8c7b
ecb0
8533
d9de
e903
a3b4
b76f
d6c2
6f4f
d04f
12fc
a519
d7f5
bc13
cff1
16f8
603b
96f8
9ad3
5c11
fc81
bb16
27fa
d25a
9243
1ac6
7c82
52f4
94b8
9c8f
c2fe
d7dc
f382
8a88
ec8d
82e0
87d1
8ce3
935b
5c4a
5f42
b646
93b0
d946
5d41
9c53
8f40
1cca
0f5f
fa44
60fd
33fd
a33b
0b4b
0bf7
0cb7
320e
59ae
7fe7
85b3
9bfc
d50a
d5b6
e6eb
e5b6
fec4
fcf9
206d
54d4
3a08
61b8
618e
dbb8
0304
dabe
115b
1189
75db
34f1
239e
2c7c
121b
645e
8083
4da1
2432
3d5e
3db7
6f8b
edc5
ad9c
77cd
b131
b19b
f117
f1c9
6dbd
1d37
3f20
21c5
712a
d1e2
916c
8193
5d6a
bd8a
bd06
d8fc
a459
942e
9489
1f3a
c41f
9868
f8bd
8833
cfde
cf07
39e4
af73
bb01
8fb8
cc2a
4e90
5aed
d228
ce97
ba3f
199a
799e
8e03
d5ce
d593
c04b
ebea
3b31
1b96
f978
a357
c3ff
e364
a29c
926d
c279
b7ff
b6c2
b04f
14bc
bc8b
d030
800e
d002
cac5
d655
d251
7aca
f2f4
1711
1de5
02cf
1bb8
e088
5b8f
6bab
9ce0
9ce1
5f5c
f2ee
abdb
fba3
de46
2305
bbab
8308
0f49
b55b
aba3
60f2
c0f0
270e
4927
5ec5
6bf8
89b8
bae9
c6e5
d20f
d6ae
d904
d7a5
eef6
efe0
f23d
2892
0a23
0a24
04e2
0dd5
0dd6
0de9
3a40
67bc
2eb0
1803
acd9
302f
381c
1143
4f19
41c2
cd7b
cd0f
cd41
7082
2a32
2a08
24c6
2d2f
c8d9
51fc
1405
f1ec
58ee
5882
1d36
21be
d112
8d9b
8106
dd8e
d82a
a438
8402
f49a
98d3
cf64
cf88
e8cd
afc3
bb25
7f9b
df22
d0e0
7b78
ceea
ce7b
992f
5e9e
5e36
aeb1
ab0b
ab2a
4394
8ee6
5b21
9084
fc2a
fcbc
5c65
2973
a9cc
9357
d787
d654
d664
d00b
b0de
60de
a844
d68c
6a1a
a6f4
d518
c0de
600b
aff6
e0de
a349
dadd
0658
cdef
abbe
a283
f58a
93d8
5728
5283
80ba
b5dd
7de3
6ba6
f682
9ce6
ebae
e3fd
fb45
15f7
1539
2acd
27a4
367f
3e02
4ea6
5e8e
6c09
7b22
7ca9
86b3
8bee
a618
a6d2
b3ab
cb53
c508
c9af
c50d
d602
d6e5
d616
d67d
d707
d6af
e505
f606
0a16
25b5
677f
67d4
2e77
61da
48da
18da
74e1
dbf0
acec
11d0
1188
4ffd
75c8
4436
cd55
cdab
0289
2ced
70cc
6492
105f
0879
80c9
3dcd
1485
f101
f123
f128
f181
6d1f
6dd9
21a9
21e5
711c
d1f0
8d01
9131
819f
c1c0
a11d
ef78
d452
d48b
5df4
bd84
d830
a4d5
c42c
b8dd
f855
e8a0
af97
7f6d
dfc7
0930
5a2c
6c7f
6c3f
6bec
d0f4
d028
d022
7e91
59ed
ba96
7aad
7a6a
feb8
9e75
b05f
d53d
6098
5b84
90cf
2b79
eb7a
fbcf
b56f
b532
8c66
9593
29cd
a969
e9b1
9320
8361
926f
9664
d6bd
3c0f
5ade
e04f
5699
d58f
371f
bb11
d546
821d
7787
7784
b08a
6bd6
eb88
e311
facc
2727
2743
2de2
92e6
c543
7c5f
b74e
df5a
8555
8ba7
6ceb
93f6
d75b
1a4f
d5a0
9758
85a3
85a6
1771
570c
5b09
5cf0
7ab9
960f
a2a5
c324
c7ab
ce86
d7e8
eecd
6584
65e6
0ded
3a24
256f
255f
03da
48cd
48fd
63ed
633b
db4a
db06
44cf
cd77
2c02
6e8d
126e
1271
57d4
2a01
64d0
46b8
2499
68cd
ed70
edd5
14c4
f16b
58ba
58d6
6dd4
1dc3
3fd4
2179
71cc
5fc8
d1d0
8d3e
91b2
c1ee
a110
5d73
5ddf
bdc7
dd6b
7d66
d873
d8be
d813
d81a
a4e3
84de
94f9
1f97
88e6
88f7
8812
cf54
cf31
cfab
cfb9
e882
db18
afc6
9f54
7f28
df95
ea53
09c2
6c2e
d025
d02a
d027
ce2f
ceb0
0cd4
0e2a
be2d
beba
fef1
7925
3ee8
3eb0
d5ac
d592
a0cd
a0eb
1b9b
e098
8cc2
8c98
9c9f
8962
299f
422e
f26f
922c
d7cf
2714
f7ec
c76d
26d4
d6ba
060b
2140
d841
d912
d00c
d7f2
5adf
d69a
d2e2
d4bd
ae19
16f1
795a
36fb
dc88
a346
b2fb
72fe
e6f5
7381
f5d7
52ca
52cb
d7d8
22e5
8c86
a58a
972f
9bb9
5cce
ebd6
c28f
828c
ee44
60f0
15aa
a333
29e8
39bf
39f8
3cfd
5ec0
5e08
6207
6be6
6caa
7621
793c
86eb
aea3
a32b
cfff
c6b3
c5b6
d708
d92b
d222
f905
697c
5419
655f
28a1
0ab0
3289
2538
2ee4
1855
1844
509e
309f
4b1c
cd09
2c1c
6eeb
ed2c
ad33
ad53
b1b3
51f3
14e4
f152
589b
3fd3
21bc
d17b
d1b8
d1f7
d1d5
8d5c
9177
816c
8119
c13d
d4f9
bd8c
c4cd
a836
f8ae
f81f
88a3
e8df
af01
af96
af81
bfed
bf9d
9f39
8faa
df96
ccec
5a71
55fe
55cd
6af4
6ae0
d265
ce99
babd
9a0a
9e25
d5e4
90cd
c023
b92f
0bc8
bcba
ecb5
1573
3bbf
e9cd
c3de
7601
d665
d846
8140
bf1b
80d5
82d3
d28d
cace
531d
a24f
e697
971d
971f
74b4
d746
738f
ee11
1c1a
d7d9
6bd8
5de4
52e0
02ca
e58a
228b
925c
5b8a
5cd2
5304
c3b8
1f40
a306
c943
7ccb
be45
8ccc
a5a7
b0f0
0982
0be3
12af
1bfb
2613
2985
36ef
3802
39ee
47ef
59b5
5b0c
6206
6bf2
622b
7edb
76d9
73af
86be
aa27
a982
a6dd
ab26
aaaa
b9b5
b3a6
b90c
c679
ceaa
ccf6
d926
d604
d73c
d6b5
e619
e6d9
e7e1
e5b7
f2ff
f988
f53e
31f9
69b7
2872
28c8
285b
044c
255a
25e5
670a
2e95
619f
18f5
63fd
ac12
da3f
4b22
118f
4514
44d2
4193
2385
1262
6494
b43a
46a4
0820
13c9
357f
359f
2406
6f91
737e
f17e
f18a
6d3b
6dc0
6d99
1db9
1dfd
5f09
d11b
8dae
8190
d45a
5d01
5da0
d815
9453
e408
1fb5
1fbc
1f81
7225
ccb6
ea61
6c9e
6a91
6a02
d297
deff
ce7f
9994
7a01
ab7d
8eea
8eba
b05b
a02d
fcf1
9b3c
e0ec
bc2f
5c73
5cd4
8954
d9cd
2931
293d
a9c5
c99d
429d
83ef
826a
d732
d79b
a7ea
d0a7
d78a
0601
c670
6c5f
12f3
a01c
d244
6a1b
86fa
a5d8
d281
a74f
ccd7
1ffe
b0af
9289
6bda
f589
8a85
f0ab
5724
d64f
90ba
9253
bc59
f7dc
9ce5
9c46
9c41
f3d9
7cc0
bcc6
0ce6
0edf
09dd
09c7
16e1
1805
13af
263f
3c24
49f6
450d
6fe0
6c08
7e0c
8206
86c6
96a3
99d2
a2ae
b939
b7af
ba05
d233
d599
e9d0
e7b5
31ca
20e8
653f
285d
0a12
67fe
6717
6785
4b02
1136
75da
4412
41c3
cd78
3423
34cd
02ea
6e3b
6ef6
64d6
4a2b
6fd1
edd4
ad85
b1eb
f1dc
f118
58cd
3f92
d122
d181
8dc2
8d8c
a174
d499
d4f3
d4fd
d4fa
bd0a
dd7e
dd21
9df8
d8f4
d8ce
d890
8422
f441
b813
9820
37ad
a8e7
f8c2
f816
88ef
cf94
9f3a
9fa0
dfc9
d059
592c
d299
fa0f
5eec
5e32
ee6a
43ea
d524
fcbd
eb79
a59b
8b98
bc7c
5cb2
c574
897d
f9c5
4294
9362
a2b2
92ac
926a
c27d
966c
a7c5
b7ec
27ac
6f5c
5001
101c
b146
621c
cc16
5384
d5d9
bb19
c0a6
f5d6
921d
c24e
b3dd
fa17
1de8
a312
fb1f
83d5
9cdf
b65e
530c
73d2
9c40
fc42
fccb
af5f
9c5b
ec42
ece0
0942
0926
0e06
16a0
160c
39dc
3beb
47ca
573e
85b6
9b06
96b5
a2b9
b6ab
ba06
c50e
d7ca
eedf
f627
3190
6998
2e91
18dc
18df
635a
74e0
ac65
307e
cd5e
3403
026e
2c78
12b8
2aaa
0835
4ae2
24fd
0fb9
68c7
c878
c899
6f82
eda1
b130
b1c5
b176
14ae
f163
f175
f1ba
f10e
3fea
71ab
d130
9176
8135
811d
c160
c1d0
c10e
a1c4
ef7e
d474
d459
5db9
dd55
9d7b
84d1
9438
b873
b88a
b8a7
985b
98db
98fc
cf72
cfce
39ed
df6f
5ae0
cce7
6cb6
5340
cef1
1a09
ee25
1ede
3e54
1674
f020
2b24
2b99
fcb8
cbcd
07d4
e5a4
8965
2957
e96f
c3ed
83e0
1761
82ad
8292
b7ba
e732
a64b
625c
b0df
7011
d2df
f698
a5d7
cac0
5ac5
d0b0
27f0
2b1b
d72b
07f4
ef15
d2ce
ec1f
4211
22e8
cc89
02c1
5a8a
a65c
bb40
cbd5
8bbd
a089
af53
af52
2baa
3ce1
93f8
eb4f
0bee
1bf6
3617
5ece
56d0
5afc
8908
89e8
880b
87ef
8321
9604
92aa
a220
b3ad
c7b5
d636
d606
d62c
d7af
d80a
d928
e617
eeb6
fed0
faa3
693b
20e9
54e4
5422
542b
286f
2898
041d
32c9
0d6f
0d9b
0dd3
259c
67ed
6793
61cb
1875
45b9
cd0a
cd7d
cdda
34e2
021e
2c54
2a0c
642a
6489
0823
80cd
1383
4d11
2494
2429
2d1e
68ad
68ff
68c3
6fac
adbd
b18c
b1f8
1487
f124
f1e9
6dff
5fb2
5fd0
d1ed
d1b9
8d28
8da5
91eb
81c1
c103
c168
c1da
d472
78f3
78a3
ddfb
d854
d8ab
a4f1
a4d3
a44f
f4d1
f4d2
c47f
b8ec
98c0
a8d7
cf91
cf8e
bfd2
9f6e
d07e
59fe
7bcd
d2ba
9ae6
7a0d
7a5b
ca31
caa8
0e3f
ee32
9e0b
8e32
b072
b069
d5c8
f0e9
a0ea
2b65
fc31
1b28
b574
c598
f9d4
f979
9361
227a
b292
d769
d7bd
e775
3545
d01f
c144
dcd3
d687
a0dc
dc86
fc83
b2f7
9e1e
9e1c
0c87
9b1e
b089
52cf
3ffb
0311
5bbc
7a86
ebb7
d643
92c7
8659
2bdf
9bb5
cc53
b3b1
3b83
ce49
85dc
a30b
8586
8e41
fa41
1ec6
29c9
2bc6
62b7
7ed0
7999
7b08
8ae9
9ef0
a50b
abfa
bcf2
b7b7
cc2b
cafb
d6e8
d70b
d6cb
d6aa
d2aa
dfe1
d22b
d229
d5e9
e6a7
e6b0
eaf0
fc0f
2090
20c4
54ee
6583
65d1
2fa3
25a7
0353
6129
61d7
db5e
acbf
dae7
da4f
308b
4f8c
4106
cd2c
cd60
cd4a
cd0c
cd40
2cec
70c0
2aee
b49c
10cb
c863
6fb2
eddf
14a4
14a8
f13b
f19c
f1da
5894
6dc1
1d6e
71b4
5fc2
5f86
d197
a136
a1d6
e127
e1a7
d421
d437
d408
d42b
d4a7
5db1
7dae
7dc9
d877
d8d6
a4f9
84cd
e4d6
b820
a892
a87b
cf38
e86b
3954
bb66
bf3f
bfb9
5a2d
55de
6c2c
6a7a
590a
49e4
ce74
cefe
8ae2
996a
0eed
1e24
b02d
5b64
c0c5
2bc2
fb7d
cb7a
3b6f
0b73
8b6f
1b3a
e053
c595
29ea
a9f5
4295
839a
b369
76ea
a22d
2298
b731
b76d
9760
9791
f70a
c76b
765d
6699
a145
d689
591d
131f
d217
86ff
6008
5c19
d65d
34b3
6ffe
d711
2b18
d744
2319
f2fc
e38b
928e
3ff4
52e8
0c13
c781
3f15
22cf
eb1e
a2e6
bb4e
9f5e
3bd3
c942
b64c
b642
2bab
cbaa
6cee
2b4e
d5a9
ca44
7d40
995a
07bc
1b5d
29fb
27a3
3208
3b2b
43a5
49f7
5ed6
5207
66e0
86c0
9705
aacd
a67e
a209
a5eb
b6e1
b608
b9b6
bca9
befb
be27
ccf0
ccfc
d2af
d2ab
eec5
312d
69b0
65ea
04ac
04f5
328d
203d
6792
6191
611e
48a4
48ee
313c
637d
7425
dbaa
ac7a
ac06
daee
11a9
4f1f
cd25
cd6c
cdd0
2c28
6eb5
6e8a
121a
702d
6437
46ab
1386
4a23
35a5
244f
6821
edd3
ed1b
739f
b1f4
1489
6d8f
6da6
1d39
3f97
7121
719c
d19f
d111
8d95
812c
81d9
c10d
c153
c113
a1ec
d429
78cc
7dac
84e0
1f29
c40e
a83f
8803
8881
88d1
cf20
cf86
cfd8
afc2
af9d
af86
bf78
7f31
8fb2
dfec
1c72
6cb3
6aff
627b
62b0
49b4
ce3e
ce52
aaac
aa92
aa5c
aa5a
9a60
9998
ca54
19a1
ae79
ee95
b0f5
dc38
d59b
60e0
c0c0
40ec
b963
bc7d
bc9f
c503
9c91
076e
89ed
896c
a9c2
c938
e9ce
a393
87ed
1784
250e
c140
a01f
9693
8ac5
6b19
a343
d58e
b2fa
34be
c014
27f3
1ffc
2b16
8f1d
5a1e
8710
82cb
72df
30ae
8b8e
ba8c
5727
c2e8
f65f
97d0
80be
cb8c
b5d3
ccce
c74e
07da
5b4e
9f49
3944
c646
ecc4
bcc3
eba1
e3fc
8951
60f3
0738
09e3
1ca3
26ef
4208
4639
59dd
7206
7e82
8c27
8b07
9c09
a70b
b66b
c926
ce26
c32b
d619
d20e
d9fa
e324
e66b
e9e8
e98a
e9a4
ecfc
f676
5496
541f
2822
0a2c
0a9a
0a0f
3a8b
2525
615f
4816
da2d
30b1
442a
410b
cd2a
cd16
34ad
34d2
23e0
2cf6
6e23
6e83
2a2c
b41d
46da
087d
1325
13ff
4a09
2423
24c7
0f7a
c886
ed58
adb0
73c3
148e
f177
f11f
f1d9
58fa
6da0
6dd1
5f03
5f9f
8d7b
9151
a199
a1ee
e195
ef33
d420
d456
5d06
d883
fddf
9437
9440
e4c4
e4d9
f473
f4fd
c4e0
981a
a8eb
a8fd
af0f
4e94
ade9
6a9c
6b9f
d0c0
7b0b
d273
d284
ce0d
ce6c
aa63
9a32
9aeb
8a2c
8ae8
fae6
7a0f
19de
feec
1eb1
799f
3e51
d5cf
60fe
6055
607e
60c7
5b2a
9074
f0e1
a029
a0e9
fcec
fb2d
cb84
a56d
1b9a
3cb1
a9ff
52de
9365
83cc
47ff
f377
f26d
9260
d66d
12dc
665d
0ffc
dcd2
76ff
cffe
dc89
6ac7
d58a
bb1d
92d0
c918
b0b9
d72e
baca
7686
a91f
d2cb
6bd1
22d0
84bd
ca8c
8c5e
2283
428f
fcd5
6b81
bde6
a55c
ce45
5cca
1d49
d0fd
f5f7
160e
1c08
2616
3807
49fd
5b29
7b0e
7efb
a70c
a207
a9cb
a7ee
aa26
a227
a599
bb0e
cea8
c3a5
cee5
c536
d509
dfee
fecb
31b1
2026
28cf
0a67
32b2
0ddc
2f71
3a6d
3a9d
3ae7
25bd
678b
61f1
0407
1823
dbf1
dbc6
30e9
11ed
115a
4fea
4590
442f
449d
cd37
cd36
0269
1270
70c9
2afc
46a7
35da
2d49
ed7a
adb9
73c9
51d9
14fc
f1ea
f176
f108
f183
58f8
2104
2136
d1a4
d1ef
c1ba
c16b
efa9
d4a8
d4d3
5da4
7801
7819
d82c
d8eb
d8fa
fdca
a4af
c49c
af88
7f63
7fc7
8f0b
4eec
4ebc
4e3c
5a3b
5a9a
6aed
622f
d0c5
d055
d09d
d296
ce59
ce79
aa7b
9a2c
5e78
aeb8
5bc2
fc62
eb3a
b925
a5ed
0b21
bc75
b561
8c25
1528
d9ad
a9ad
f933
a398
93c4
e3fe
2268
c24b
d7b4
f60b
9040
d2e7
591f
d4b7
6a13
02f2
5c1e
d582
d0b7
9ffa
b0b0
731e
b7f6
e688
cf4d
1de6
5a83
2bdd
0723
cccc
0741
53d0
8cd8
0bda
2b82
9f41
7b42
ec40
275c
0624
070b
1639
17c7
29e1
5fff
56e3
66e3
7508
79a4
8a26
99a9
a3a8
a2a6
b220
bb53
b6c9
b327
c73d
cacd
c604
d989
d205
d576
d5b3
e3ad
ee89
54d5
54fd
5012
67b1
67f0
03b5
6192
6140
18ca
6325
74cd
db83
ac73
ace1
daba
da13
1184
111c
4104
cd21
cdca
34f5
6e15
129a
702e
70cb
2a97
089a
8060
8086
1396
4a93
244c
2d3f
2d5c
c8c2
c89d
6f9d
6f8a
ad27
7360
b1c9
51da
1462
1425
f1a7
f1d8
6d08
1dd1
1dd2
1df8
216d
21d0
7197
d13b
8d92
8d7e
91b9
a11e
e12c
d41a
5d0a
7884
7810
7d13
d8ac
a430
a4c7
9499
e484
f425
f436
cf93
cf97
cf39
cfcb
cfc3
af25
af3c
bbe0
8f14
eaec
095a
6293
d023
d0e7
d268
bab1
9924
7ab1
7ae0
19cd
ab63
8e61
3efe
dc3d
d595
5b3f
f055
a05f
2b98
fc0d
0b3f
1b7b
8cac
9568
959f
7c54
9cac
9c25
9c68
3c62
85e8
e5ea
d914
a9ed
f535
e9ec
f920
f90d
93c5
22b1
9201
2760
8765
c7ba
86ac
e846
d688
e018
90d6
50d9
cc17
60a8
60ab
d0b2
9f1f
eff9
c511
b518
b2d4
3cd6
2bbc
73bd
c0b6
974d
b58b
5cc4
ea8d
ba45
7ba0
fde0
de4d
bd42
5e4d
835b
2751
f0f8
067b
177b
2771
2be6
2bc7
5639
59d9
59a0
5506
5922
557e
6612
7c2b
8606
86d8
850b
8b0c
9ea5
9227
a62a
a536
b33d
bbf9
b797
bca5
cec5
c73b
c62b
cfe4
d639
d6a4
d6dc
d907
d6bc
f6e7
f205
fca6
28e4
0aa1
0d1c
252e
03b9
2e2a
61b0
4827
dbd5
ac76
45fd
cd98
cd7e
cdf0
cd42
340d
2a5c
64dd
b472
b4cb
8069
4a14
3ddf
c84b
c86f
c8e6
edfb
b1fd
51ea
f139
f129
f188
f11c
58ae
5883
58da
6dd2
1d6d
3f93
2119
5f36
5f0e
9106
815c
c1bf
a15d
d47a
d4db
d4fb
5d04
bd85
78f9
9dbc
9ddb
9dd2
7db6
fddc
a432
a457
a4f5
849f
841a
844c
94fe
e4e4
e404
1f9f
b8a0
b8d2
b8f0
37ed
886e
cfd0
cf0c
bb94
bfea
bf98
bf8e
9f2a
9f68
9f86
7fa9
72b6
1c95
093f
6cc2
627c
6bc0
d02c
59e4
d27f
d294
aab0
8a72
9967
535b
ca75
0e01
0eb8
5e63
5eb5
ae57
ae21
ee78
eeb0
9e7c
fc91
fc9e
fcbe
fb57
b979
8b97
1b6d
5c25
5cbc
c538
95c0
070a
a963
17c0
f2c5
200b
979f
e7b4
26b4
495c
cf10
e041
a003
d241
80d8
5c89
914e
82d8
06ff
bcd6
8916
22e1
2ac1
dc1a
dc1d
50ac
93d7
d649
2786
5a8f
8c56
8656
e546
6ba5
bf4d
5b4c
7283
33b7
2306
dc46
830a
0ce5
dd4d
e758
e5f3
55af
16cd
16be
167e
13aa
261d
2202
2be9
36a7
560f
56b6
5706
5c22
7ca5
8939
8ea3
8e0c
96a7
9509
a808
aeaf
a905
a9b9
a7c7
c73c
cefc
cae3
decd
deab
de02
d7b8
feae
fec7
f906
fcfa
fcb6
3184
69d3
6588
044a
0d2b
0d12
256e
25d4
67c8
6783
0325
48f8
18dd
6396
5097
ac68
acef
75c2
7560
755e
448e
41e6
cd30
cd32
0274
6e09
70f6
2ae7
64d2
8072
0f3b
0fd9
68a8
c827
3360
6f04
ed04
212c
7115
5f2f
5f3b
8dc5
c1eb
efdd
d4ec
d470
d475
d442
d8c8
d876
fd2e
fdb0
84aa
94e1
e443
f422
c479
b82f
98f1
3792
f895
88ba
88f2
cf01
bf65
7fad
df37
1681
cc14
7e31
d27a
de98
9aac
0e6f
5e7a
be31
feed
1e92
dc7e
dcb8
d5cc
c074
a0e4
fc7b
fc3e
eb78
fb92
0b24
b52f
c53a
c5ed
8c7c
952d
ec73
a90b
c976
a399
936a
c378
8370
8399
b392
b366
176b
8291
9295
d76a
b7ed
27ad
c7ad
d64b
0620
b66e
725b
f845
c04a
5918
6005
a5dd
6037
cad6
8039
a742
fc5e
7acc
b512
a0ad
c4b6
82c6
90ac
5de8
c582
9b87
80b6
73ba
ba4f
de4f
230b
cbaf
e64c
7a4c
d0f0
d0fb
90f0
27c6
33a6
5b53
56b0
661a
76b8
7609
7e02
7c22
8984
9b08
9b0f
9597
a6a5
a23e
a571
aaa9
b6b7
b80f
bed0
b6b6
b9c7
bcae
bfe9
bef2
beb3
c9ae
c80a
ce0f
decc
ded9
d9f8
d9b2
f571
3102
202b
0a2d
0afe
0a7b
0abc
0467
041b
328a
2f64
2fed
2fe7
25f4
2555
25b8
25a9
6794
0331
613c
632e
50ee
db5d
db08
dae4
3875
38f5
38f4
38bf
38dd
38fa
45c2
455d
4492
cdf2
2396
2cfb
129f
124e
2a8d
b42a
b4d0
1056
8061
2491
2498
0f64
68e1
688a
c8d1
edde
ed60
ed81
7395
14eb
14da
14d3
f162
f12c
58b8
1d12
3f03
719d
5fbe
5fd5
d10b
d15f
d1eb
8db0
8d56
8198
c1cd
c15f
d495
d47e
bd38
781d
7811
9d9d
7d8a
d882
fd55
f455
983b
f86f
f87f
888c
cfad
bb7a
8f9e
8fc1
df7c
55c2
6bef
d0e9
7e65
d2c5
d27c
d2b0
ce28
aa6d
aa91
1a78
ca20
1998
be92
ae14
ab2c
ee6f
ee98
eebe
792a
dc2d
dca1
d533
d59a
d5bc
f022
f027
40cd
fc01
eb62
b957
a5f5
5c7b
c566
959b
3c96
e525
a9ec
a993
f9ff
52ba
a32f
c3e2
76a1
c230
d7ec
d7cc
8798
e769
d78b
d789
071d
8003
d7f1
4033
76f5
4ad6
5c88
ae18
6ad2
700b
22f4
80a3
3e1d
5511
82f8
9b1f
b312
6c88
e917
a688
a287
22e4
2c5c
8a1c
2213
1a10
87df
8dee
f7d2
e540
bce8
9785
5302
b729
a54b
1f42
872a
8724
e55a
bbaa
f5f8
0eae
0233
09b5
0b0e
19e6
17a6
2b29
22b6
3618
380f
4e89
4e09
56db
59c9
56d7
56cf
5e85
59be
5bee
5efb
5a28
73a9
7507
7ca0
86b9
97a7
92a7
a7e0
b638
bbf8
b93c
bef0
ced7
c77c
def7
d6c1
d7a4
dfe3
e621
f637
f6b3
f3a0
f7a8
fbf2
543a
6582
6510
651c
04fc
2f69
3a5c
3ac9
3ad3
2563
2566
2560
253e
6788
2e3a
2eb4
610a
184a
63c7
db58
dbf6
ac1b
30eb
4ff4
45c6
cd18
23de
2338
2c68
6e91
6ee8
6e87
1210
70ca
2a2a
2a04
2a22
6428
b44a
46c7
08eb
8090
8040
24eb
24fa
0f6a
2d21
3d2f
c8ce
c8c6
6fb6
ed28
779a
b19a
14d6
5825
587b
1da8
5f8a
d101
d1de
d128
d11e
8d57
9172
91be
c10a
a16b
e1d5
ef67
d4e8
d4a0
5db3
fd31
fdb4
8434
8456
e420
f4e0
c44b
98f5
98bf
a87c
cf79
cfd3
bf27
9fba
9f91
9f0f
097a
d06b
7e55
d29d
49a1
de01
ce64
ba9e
aab4
ab2d
9eec
53ff
b073
d5a1
5b3b
c0e3
fcb0
b96f
a5cf
bc7f
5cb8
b59b
9cbe
07b1
d92e
29ec
a99b
c975
c97e
c37d
f364
f27c
d7ed
a7c2
a798
976d
87c1
d784
86ec
d017
d0d8
cf11
46f2
5f1b
80d0
d211
d519
e015
0e1c
60af
d5dd
9ac6
9ac5
74be
9ffc
b4bc
fc5d
fc59
d541
924a
1ff6
f5df
57fb
e68f
6725
d7d1
931d
70a1
a7f6
8319
8a89
5a89
4282
878a
8786
1653
cb8e
bce1
bce9
9cd8
8cda
ea88
f78f
0cd8
5f4d
9bd5
df5e
064d
5d4e
cb4d
e95e
15a9
c0fb
1c2b
1beb
1a05
3b08
47ab
567b
59f0
6aa0
7af7
8ea6
8bcb
8eee
8fe4
962d
920e
9605
9e8d
9a05
aec9
a981
afe4
b9a3
b7a8
b7ae
baf0
c625
c904
c6a9
c2b7
d238
d9e5
d507
ecb3
f9e5
f509
f9e7
54f6
65c2
65cb
65da
65e3
0af7
0af6
2f54
2fe9
2f45
6702
2e74
61b6
48c4
48a8
18a7
acd1
da97
309d
3829
75d0
cd20
cd2f
cdec
cd3f
cdcf
341b
23fe
2c17
6e5d
57e5
2a30
805f
4a97
4ae9
3582
24cf
2453
adac
b161
b19e
b102
51b9
f196
587a
6d24
1d14
21f9
d15d
d1e6
d129
9196
8188
c169
a16c
a13b
d434
9dbd
fd5d
a449
982f
988d
a8b6
88d6
cf76
cfb7
39f1
afdc
bf72
7f91
7f79
8f95
8fd3
72ba
4e5d
5a14
ea1e
559a
6afe
d06f
d0cc
d079
590b
d29a
ceb1
ce9f
cee6
8a65
8a53
9972
5e38
ab6e
fe95
fe6b
ee4b
ee7b
43cd
b057
b0e2
16ec
f071
f0cb
2b9a
40e3
fc33
3b36
e074
e07d
b52c
85d4
8568
1562
d995
296b
a961
f977
937b
47c8
e393
a272
1785
800b
6695
cf16
d7f4
814c
1340
d21c
ce1d
ce19
5ac7
721d
64bd
64b8
d581
6ff7
d255
c6ff
37f0
be1e
065a
fa13
a7f2
c682
8546
b2e4
97d2
cf51
9721
f28d
8ff1
2742
6b83
80bf
8743
3b88
6bb7
e3b6
1d4f
e3dc
ba49
de45
164a
fc4a
025a
bcc7
3c46
0cc8
ca43
73f2
a955
a95e
f75e
06c0
1997
2233
29df
2b5f
3509
4ed6
4907
6b02
79e8
7e09
875f
8ec4
8cb7
8a02
9807
9aa3
aea4
a77b
a7bc
a527
b98c
b5e7
cea3
c6d3
d679
d63c
d929
e9c6
f7bc
fbf7
31f4
20d1
65c3
2866
2893
0afa
6705
035c
2e92
61dd
74ff
748c
ac24
ac51
ac5e
ac1e
da76
da8a
da18
38e2
4fc2
4fa7
45ed
752e
751e
41a6
cdc8
34cc
6efe
6e22
7021
b430
2414
0fcc
0fdf
2d0d
2d17
2da3
6f14
ed6d
7797
512f
f1e4
583b
58d3
58fd
1d77
711d
5f14
5fbc
8d65
e124
e1f4
e192
d444
5d81
bd87
787f
78db
78dd
ddda
dd0c
7dbf
d867
d86b
fd39
a48a
a441
94ca
9410
e4ce
c40b
b8c0
98da
a83c
f879
f81a
cf0a
cfc4
af26
bf6b
9fdc
8f8c
8f0c
cc7d
1c7a
ea2f
5a31
6c7d
6298
d06e
d056
7eec
599a
d231
d22a
d26c
499d
ce7d
ceb8
aa93
9a56
9957
1a38
caf1
1979
abcd
9e3e
1e66
7924
dc75
d534
c061
a02b
2b72
fc4b
fcf5
fc9c
ebf1
9b94
a503
8b9f
e06d
b520
c59d
9503
9573
7c31
296a
a971
e964
93c1
b3ca
f2be
c2bc
b26e
979b
273a
2770
1302
b040
d6f1
c14e
d006
134e
4ad5
8aca
b03d
b03e
5315
6c19
a341
d0b8
f010
ead9
12ee
9ff9
62fc
c912
5a16
1ac1
07fe
871e
672e
e91a
8681
4918
8b83
9517
c2e3
33d3
2783
c5d1
f25b
bbb9
bf4a
5f58
95d1
f559
f08e
a3f7
93fc
c95a
c95b
f958
b5fa
03aa
1628
17be
263d
29a6
298c
33af
3e82
3ee5
3ca9
53a5
5afd
66e2
623c
7edf
9635
9907
a6e9
a9ae
a3eb
b613
bedf
b604
c673
c2a1
ce08
d9e2
d98f
d7e5
e63e
f6cd
f9ae
f60c
fcfb
691e
65af
284e
3290
0df1
18c0
74fb
db20
db64
3029
452e
7528
23b0
0285
2c27
2c81
2c05
6e7e
6e7a
70ed
08b0
084e
802e
352e
35ca
3d7d
6889
edf4
ed78
adad
5160
f17a
f1b3
f11e
3f29
2121
71fb
5f33
5fdc
d18a
9138
919d
c125
c1b0
a132
a1f6
e15d
ef30
5dd9
ddbc
9dd5
7d96
d85e
d816
a4e4
a4ae
b8bc
986c
989c
a8ea
f859
cfb2
cf22
afba
af28
af08
bbec
9f23
7f64
7f78
df0e
cc3d
1ced
5aad
6af5
6bfe
e6d4
49ff
ce21
cebf
aa61
fae2
99ea
99c1
caba
5e2f
5e2d
5ef4
ab01
fe6d
8eb1
3e75
dc30
d53a
d5c0
6072
90ff
f0ed
f098
f0e0
c0e5
a099
fb98
a592
a5c0
1b74
9531
9557
9cbd
3c2f
07c1
a973
f5f1
c993
52bc
c391
e3e1
170d
9223
926b
d767
d795
9754
e79a
1788
d01a
d918
f6fb
401e
56f5
568a
6033
a046
96fc
cad1
62d6
371e
80a7
d08d
7c16
471f
fada
f5d9
c715
6729
eb8a
47fd
22dd
8684
491f
aac6
fb87
33d0
6bae
bb43
42e3
6287
5f5d
5217
73da
b644
7b8e
8ba3
1ba3
bc4e
e351
f30d
43f8
95ab
03a5
09ca
1329
2608
26d1
27a0
22a1
36e8
3606
3706
5617
5908
56a7
5ca7
5c0c
6617
6cf6
773e
72a7
8627
8e07
9639
9986
96d5
a638
a2cd
a9f6
a226
beaf
be87
cec8
c9a6
cbcb
c7c9
d677
d6e4
d9b0
d7b0
dcfd
e6e6
e571
f60e
f6be
65ac
2875
0ada
045e
0d82
253b
67b4
613f
6183
1874
18db
18f9
63d8
63fa
7487
502a
508b
ac26
daf6
30ca
3819
4b11
4b10
cd04
23e7
029e
029f
2c01
2c93
2c8f
6e92
6e8e
1225
12bf
6423
b424
b481
b416
4682
08e2
2484
2d42
68f7
68b7
c861
c86b
c896
c836
33e7
6fb1
ad01
73ca
b1e7
5829
6d01
6df2
3fb6
21ba
7188
c1f5
5d69
785a
9d68
9d09
9db3
d824
d8a5
a496
843c
f435
f48d
1fec
1f25
c49e
986f
9836
98d9
98f9
a87f
a835
f87a
e823
bb6a
bf6f
9fcd
7fb2
7fb3
cc69
cc37
ea35
d093
7e25
d26a
ce61
ce25
9962
1a5a
192e
193b
5e3a
5ede
be2a
be84
ae38
aebe
abf5
ee30
eeff
1e58
8e92
8eb0
3e7e
6074
5b68
9079
c0ee
a0c3
2bcd
2bc0
2b7a
0bc4
1b72
1b73
5c99
5c97
ec71
85ac
e5bd
a96b
f5b5
c9fe
a3e2
4795
762f
c29b
d794
b7c8
e790
f6de
500f
12ce
d016
d0dd
d6f0
24b8
d240
bc15
16f4
6b1e
02f9
90d5
30d9
5c10
d08e
e4bf
9244
6c86
40ab
771e
a724
2ac2
33dc
2781
87dd
60b0
f74a
9587
62ce
1d46
3bdd
e78a
42c4
7c40
2bae
ea49
8c4f
8e46
a3fb
0ed9
0be6
170f
1aaa
15b7
260e
29ae
29f8
39e8
3cfa
4707
49f8
49fc
47eb
43ee
5602
56e7
5aae
6bfc
7fe1
86ed
9208
9802
9ab6
a98a
a502
b2ff
bc04
b3a5
bef6
b9c6
bc27
beeb
c60e
c20c
cef6
ce09
c50f
d735
d7ef
d50c
d23c
e611
e6d0
f2a3
f507
6906
205e
5493
6595
0a7a
046a
0d19
2562
2539
25a0
673a
67e1
03b6
2e3d
1827
6381
747c
50b0
1123
11b8
1146
457e
44ab
41db
cd22
cd1c
02bd
021b
7029
642d
46b4
0f61
0fa3
2dc2
2d4e
3d03
6f2b
7792
b162
b164
b1c3
581c
6dc2
6da1
6d5a
1ddc
7105
5f20
5f02
d132
d124
d1a7
d1d3
8d58
c18d
a17a
a1b8
a1d7
d49d
d416
5dba
5df0
bdf5
bda6
9d92
7d92
7daf
7d2b
fd6c
a419
8495
944c
e409
9831
9890
a8a7
f885
888b
e8d6
e8f2
39c0
bb24
72bf
095f
6221
d0e6
7e51
59ea
7b96
d29b
d276
9a9f
8a6f
fa64
faa8
996e
1abd
ca67
aee6
ee5c
9e62
9ee4
79c1
8e36
3e98
b0c5
b06d
dcba
dc6a
d53f
606b
6084
5b0a
9023
90eb
c090
cb68
8be1
b56d
c5ee
8c75
95bf
7c37
9c0b
3c6f
ecf4
ec9a
e5b4
8993
2975
e994
527c
a332
9332
7603
1773
c27a
d798
b765
f773
2010
066e
b62e
d6f5
cf1b
2ad0
e141
d2d0
80d2
4011
66fe
f696
e0db
26f8
5e18
aad2
f04c
a24a
fc8e
b2f4
34b8
d72a
8ade
c34a
9b1a
8b12
968f
97f6
a721
9c84
6bdb
22d7
775b
cf4e
93db
1c82
a4b1
a2d5
fcd7
1bb1
330b
f0b4
b5d9
a556
7bbc
42e5
b586
5bab
83b9
33b2
fcca
0649
8baa
53ba
0ce1
ed4c
be41
8a4d
7f46
d757
275d
275e
395d
95f2
40fa
0610
09f6
09f3
06a8
1983
1506
22ff
23a4
37a3
49a9
5bc9
6502
6aa3
79d8
73a4
7329
8a21
96eb
9ec5
97af
9203
9c0c
a80c
b3a4
c6db
ce8a
ce83
cee9
d77b
def9
e7ef
f6b0
f207
fe86
fcf6
fa0c
31af
2020
284a
0aa5
0417
0df5
2ff3
25ce
2579
25d8
0370
2e7e
2e87
2e4d
6113
18c5
50e0
dbac
db9c
dbd1
acd2
4f3a
4f0d
45aa
4516
cd84
cd28
235e
6e03
6ee1
708f
2a5a
6422
64fd
b4f9
1021
104c
4a3a
3519
3d1b
68c8
c87b
edb1
adde
adc8
f12b
587f
588b
a25e
3f90
21fd
5fa9
d195
d190
9123
9119
c1f4
a15b
a11f
d4f2
d418
5daf
bdb5
bd2b
78ae
dd5d
d801
d83b
a476
84c3
8488
9470
f4f2
1f79
b85c
8899
cf62
cfd4
cf35
8f31
8f0e
7296
1cbd
1c99
ea04
4e92
4e66
4ee6
0961
5ab1
5ab8
55bc
6cbd
6bed
6b3b
6be1
7e3c
599d
7b01
d292
ce2e
ce2c
ce6a
0ced
0c34
aa03
8aed
8ae4
996b
1966
1e14
437e
3e5c
d56f
5b98
c0c9
2b3c
fc35
fc99
9b3f
9b38
fb32
a5bf
bc36
c5f4
c56d
9530
9574
7c9c
8503
152e
e5ff
896f
f995
8354
8369
836f
b332
e32c
17c1
b279
8701
f720
1308
d786
d670
f6ea
b04a
5add
701c
d683
4adf
a38a
50d1
1adb
f0d8
f0d3
a71f
2693
80ab
92f2
9f17
eff2
731f
f34c
191a
dff8
ab87
a915
b283
fcdc
90bd
9c17
7cd8
bf40
9742
0bd7
2546
530a
728e
908e
0bb0
f55c
1640
df56
f355
9646
9645
9d41
ab4d
894c
2755
d5f8
8756
9759
95a9
0628
0b06
1feb
2639
262a
29f2
22b9
3eab
3709
3ed4
47c7
5324
593e
53eb
663c
8676
8612
89aa
89dc
822b
9753
96e0
998a
9997
95b7
a7bf
ae8b
bea5
b62d
b928
bc06
d6a0
d6a5
d709
d6da
d80e
d5eb
f9d2
f927
fc09
3129
31a5
69ec
695b
2891
0a55
0a5c
044b
3225
2591
256a
25f1
67d6
03fe
037d
0321
61fe
63ca
db59
ac6e
ac6a
38a7
11cd
417f
41cd
cdad
232a
23ef
2c85
2ce5
6eef
70c2
2a76
2a27
2a1e
64c3
64e9
b46c
10ca
08e8
1320
4a7e
35a9
35d8
2434
0f25
2da9
683c
68e3
c895
c8cd
6f60
6f99
edb4
ad29
73ff
739d
b163
5195
51b2
14fa
f135
5815
6d8b
1d76
1d5e
1df0
21b5
5f0b
d189
d1a5
91d5
81c0
c152
a123
d431
d4ea
d466
d443
bd91
78fe
789d
dd5c
7ddb
d85a
fda0
a44a
a44c
84a4
94c8
e427
c413
9864
985f
a84b
a8d3
f85f
889a
888e
88f9
af33
bf20
bf62
bf0f
9f25
9f89
8fb0
8f36
df36
df3c
7222
cc63
5ab0
3baa
59de
7bc2
d270
ce0a
ba25
bae1
aa62
9a91
9975
ca5a
ae23
ab6d
fe34
1e5a
4392
5325
d52f
d564
d5b1
6097
5b93
c06a
4028
4076
eb20
eb35
eb92
fb93
cb03
cb62
a5d4
8bac
8b69
1b65
e051
e0c6
bc64
5c34
b593
9524
9c38
3c38
8566
0764
07b4
3bbe
890a
89cc
d92c
d9a1
f971
a390
a3e1
c3e1
e3ed
7661
a24b
a29b
d76c
276d
87cc
e79c
26a1
d0aa
2502
101a
b044
b045
665b
6691
884a
24be
e84e
d917
a51f
d4b6
a6f6
5c86
ae16
82d0
cc1b
fc8d
12e9
ccd2
8f12
0c88
40a1
7710
9c82
ec1d
ba1a
b211
2252
528a
9b8e
a3df
331b
3308
f7d3
f7d6
7de4
53df
9ce9
bb45
47d3
5b4a
5f5e
4721
a087
10be
730e
f3dd
f94d
dce2
af51
dc42
9cc1
0ce2
9ba9
ab44
1c4e
8944
eba5
4339
433e
d5af
d5fc
c5f2
a33c
1996
26e2
27a7
3bfb
49a3
4702
56e0
5739
5b07
5c21
522b
6eae
6bfd
767b
76e2
8beb
82b6
8aab
97e0
92a4
977a
a206
a328
ba27
baaa
c73e
ce8c
d9b6
d7a8
d2a4
de8f
d7c9
d77e
e623
e6c7
f62a
3119
31b3
3116
54ef
2860
0a8b
0419
2fa1
3a04
255b
677d
6781
2ed2
2e1a
1869
186b
6392
ac39
30ec
3025
3801
4b0c
1198
116a
1196
4fa6
45df
7514
41a7
411f
345f
2c74
6ef0
1213
70fc
571d
2ab1
64f3
102e
1089
4a1c
3529
0f2b
2d40
3da7
c872
c87e
c8d6
6f03
ed90
ada0
770d
515f
58b1
1da3
210e
d174
d159
8d8e
91fe
916b
915c
c167
c16a
c1ae
a1ac
ef9b
d43d
d49e
5da6
ddf1
d8e5
84db
94c0
e438
e437
1f22
c48c
c405
b82a
b8e9
9823
a8ae
cf65
cf77
cfdc
3903
afa4
bb71
9fac
7f0a
8f76
df64
0972
6aea
6214
59ec
49cd
de6d
ce01
ce5b
ba71
fa7d
1a6c
0e68
be9f
ab69
fe38
fe9a
9e7f
1e20
1e90
b090
b05d
cb9f
b9ac
3b2f
3bce
3b37
0be4
1b71
bc65
c570
c5b0
7c64
3c23
ec7f
ec9c
f914
527b
93c8
93e4
b32d
1769
f22e
c26f
c267
c290
a7c8
f701
e793
563a
503a
265f
7240
4040
669b
24b1
d697
d69c
c04e
c04f
80db
d21e
96f4
36f1
5e1d
b69a
9add
62da
a034
50dc
dc85
64b3
d65e
d5d3
d5d2
e4ba
9a1f
7ac0
40d6
07f6
f2f0
6cdb
f5d8
a0aa
0687
b2dc
c7f8
8b8a
aac5
225a
ec57
e085
e082
7bd3
7bdc
ede9
c746
07d9
c7d2
174b
fbd8
908a
27d6
5c45
7c41
af4d
9a4c
e0bd
dc41
9cc4
8f4c
8d4e
ab42
c552
a5fc
d5fa
9756
60fb
c3f3
95f8
a0f3
40f7
a33f
0ef8
0e8b
1707
1e8c
17b0
2626
2777
2eac
293c
223f
37ab
49d7
5b52
5596
680a
7e81
89fd
980d
970e
9efd
9704
9e87
9cf6
9529
ab5c
b73d
b616
b6e7
b2a3
c611
c63f
ced5
ceee
c222
e6ef
ea29
fbfa
f7b9
fcae
fcaa
310c
20cc
20ce
65bc
6581
2855
28a5
0a2f
0aed
0a71
0adb
3a75
3ab9
257e
6701
67e8
0381
2e29
189d
ac19
ac8b
daae
38d0
4b05
4f5c
453e
4589
41f5
cda3
0275
02ba
2cc5
124b
5713
10e0
08d2
802b
4ae7
0f76
0f3e
2d94
2d78
2dfc
2d13
6886
c855
33e8
ed76
ed16
b12f
b121
f160
f15c
6dfe
6dbe
1d02
5f69
5fb3
d1f1
d1af
d1f3
8df1
816e
a1e3
e199
5d6b
78d3
dd4b
9d3e
7d18
d83c
fd20
8431
84ad
9401
e401
e430
e41f
e4d3
1f6a
1f8a
c46e
98e9
3793
cf57
cfda
e82f
e8ee
3998
afaf
bfc4
9f01
8f24
dfcd
5a0c
6aef
7ef5
7e94
ce96
aaa8
9ab8
fae1
fae8
996f
5ebf
5e5d
be6e
66c5
ee5b
8e23
3e0b
c09f
4024
cb64
3bbd
d972
d9e4
f5c5
93ef
c36e
47ec
17cf
8272
f27e
9265
a7a1
c768
8630
525c
6740
d6f7
d51e
c0d4
ce1b
ce16
0e15
d58d
5b11
d718
c0a7
b0ba
f2f8
1918
7786
52dc
cde6
1c12
031a
a68a
b2d6
cb1e
fc10
c4b5
091c
f249
cf45
f0ad
02c4
228f
8652
bded
7de6
6ba0
cc5f
7913
8b40
f942
7c43
7c44
9a4d
c640
c643
a751
b358
c5fd
f75d
020c
0bc7
123d
267d
27ef
3edf
3504
46e6
43cb
5e07
5fe7
553e
72a3
7bc6
7e88
8634
867b
8ece
870b
873c
8fe0
9777
9611
9ed3
97e6
9bc6
a6eb
ae07
a63c
abe2
b50d
cea9
cbf7
c5e9
d506
e7c3
f9a8
f9b2
f322
31e4
2083
54f9
28d7
0a72
04db
32cc
3210
2fdc
3a92
6799
03b2
2e5e
638c
505e
dab5
11ad
45d7
cd64
cdf1
34f8
027d
6e9f
6e1d
2a9e
64ed
b425
b458
4686
4605
4a13
2d23
3d10
6f89
ad60
ad58
adda
add1
737b
73e1
5117
144b
149e
14ab
58c4
1d6a
71cf
5f4b
5f21
5fa7
d167
d10e
8d74
8dfb
91e6
91a0
812e
81b8
a153
a119
e1cf
efa8
d493
d441
5d71
bd5d
787b
dd3c
ddd6
7d8d
7dc3
d82f
d895
d8ca
d8ae
fdf7
fd0e
a4c1
a4f0
846e
84f6
9474
946a
943c
f4a4
f4a7
c4a6
b812
987a
a86f
88b0
cfec
cf71
bf02
bfdd
1cb8
5ae7
6c0b
6cb0
622d
d071
d0c6
7e61
7e62
7e3e
7b03
d298
aab2
fa25
9932
5e5c
be70
ae2d
ab37
1eba
79e4
d5bf
6059
5b7e
5b9a
f023
c058
c09b
9b6a
b97f
b99b
a59d
3b64
3b98
0b2c
1b92
bc25
b565
b5ff
952f
9534
7c61
7c7a
2934
a977
f5ed
c990
e92c
c37b
b3e4
f3de
a701
9732
873a
a667
0654
250d
12cb
d0da
735a
d246
5912
d4be
bad4
a385
9adf
aadf
6ac3
d587
b009
0b17
eadc
7e13
74b2
c91b
551a
1912
9210
768d
928d
a72f
125a
1256
c387
70ab
aa82
c2e4
02cc
92c0
2288
8251
fb1e
1bb7
9bba
0c55
bbb6
0727
ccc1
a0bd
b589
2b8f
ce4a
ce4c
77d1
7c52
9c42
935f
5ce8
1cee
cba5
bcc8
dd44
1c44
7f43
f3f2
0633
19ef
12aa
12a4
1ae7
270c
2905
2984
39d3
3eda
3cae
46e4
59a3
663b
7ec2
77a7
8806
83a7
ab5a
afeb
aaf2
b63b
c610
c936
cc24
c504
d6a7
d807
d20b
d80b
d2a6
e93e
eb5b
f75f
f677
f326
f6d1
6901
691d
69f0
206e
20d6
54cc
65fc
04b1
32b8
32e2
3217
3a3a
2557
25b3
67aa
6711
2e06
6197
1851
ac61
da9e
da96
dae6
3084
3825
11ca
118d
4fee
4fdd
45cb
41f8
cd03
cd92
34eb
3488
239c
02bf
2a14
2a90
082d
086d
245b
241e
2db8
68aa
68dc
ad38
ad6a
b11f
51b7
58d4
583e
6dc3
6dd8
1d5c
71d0
5f01
5f68
d154
d198
8dd5
91c1
8161
81b0
c1d1
a16e
e122
e102
ef8d
d460
5d8f
bd3d
dd28
7daa
d874
d862
d891
fd83
a46b
8479
949e
9428
e4d8
e440
f4d7
c49b
b870
b8f5
98d4
a86e
a83b
a87e
f85e
cfc0
cf7a
afc5
bfdb
9f84
7fdd
8f68
cc78
55ba
6aad
6bcd
7e95
7b91
ce9b
9abc
8a74
8a14
7a61
7a76
19f1
5e7d
beb2
ae3b
aee0
66ba
ab66
ee63
ee5d
1e2f
dc93
604b
c0cd
c071
a06f
407d
ebc5
9b35
a52d
8b61
8bcc
8bc8
e060
bc74
bcbd
8c33
8c7e
7c2d
856d
0730
2925
f9c0
a32c
a368
4714
e325
8278
a261
2274
9261
d7ad
a795
f7d4
d661
d039
d7fb
d24d
569f
d681
d21f
ce1f
7add
b693
700a
5c13
fc84
bb12
631a
b4b4
b4b2
d082
fc52
2242
52fa
9685
ca1f
c2f3
ec18
47f4
b3db
a28b
f4b3
dc13
ab1a
72e0
a2dd
82ef
1b8e
ecd3
07d5
5b42
c7d7
5cc9
83b5
40ba
1d45
f94e
7ba8
b257
872e
d942
5583
e742
5e4f
0f53
6308
9b4a
2756
d0f7
d0f3
95fb
0202
0efd
0cf0
1616
19cb
1a28
2b4b
26c8
2927
2bcb
2799
3b5c
5ea6
550b
59a7
5b0e
5eee
53e3
66a3
6203
6c27
6fe1
7982
7c0f
8e29
8ab3
9e26
9779
a614
a7b7
a3c6
aae7
b80d
be22
b6bf
b80b
c90e
c9a5
d220
d6ee
d806
d6c4
d502
de83
d5b9
e6e3
e602
fcf2
31f0
69c6
20de
282d
2853
0ab8
0459
32d8
2fa7
2ee1
61a4
61ab
48a0
48e3
1860
740c
db32
dbd8
acbc
da29
30cd
30fc
3839
388a
4f24
4517
75f7
758f
44d4
cddb
cdd5
3492
64a8
64a5
b496
10f7
4660
08f5
2405
0fed
2d73
2dca
2da5
3d91
3df2
68cb
c870
c8b1
c81f
ed9e
edcf
ed8e
ad6b
14d8
f111
1d56
7128
71bc
5f30
d1e0
d1c7
d1dd
d10c
8d94
8d18
91d3
81a8
8105
e158
d425
d432
5db8
5db0
5d59
5d99
bd7a
bdb6
ddcd
7dad
d8ba
d838
d879
fd74
fdbf
a460
8466
84fc
948d
e4a8
e4d1
f48f
c4ca
b8fa
9894
98c3
88d5
881a
cf26
e835
bfa6
bf05
9f75
9f66
7f95
362f
4eb7
5ae2
6cde
6a2e
6aa4
6b95
6b28
d078
599c
7bcc
ce98
aa90
9afe
8a25
fa5a
7a5d
0e03
0e53
be94
ae03
ae7a
ee3e
b0fe
5b23
5b6c
905b
f06d
2b7b
2b58
eb90
fb6a
cb63
cb77
a5de
a53f
a5ce
bc97
5c64
b554
b570
b534
95bd
7c97
3c74
3c9a
ecb4
8934
d92f
296e
a9cf
c903
e3cd
829a
2267
22b0
d763
a703
201a
b6de
f143
1018
101f
d0d5
d14e
b843
c14c
701e
d694
8146
769a
5f1f
56fd
16f6
bff4
02fb
803f
6213
6c1b
30dd
3018
d652
fc8a
d2f7
8e10
c0a1
d54c
e4bc
7c1f
1ac0
6cdc
8c17
a913
1c13
c001
22da
8911
ba1f
ca83
52e4
e31f
1de9
a2dc
fb8f
fac0
a7d2
90b4
9725
ccc6
0749
c722
c0b3
174c
0bb1
7309
408a
fc45
fcc3
8d4d
6ce6
9d4a
8949
0c42
cb41
d5fb
c0f2
1b04
567a
562c
56d8
5ee3
5bf3
79a3
7e06
7afd
8726
89fc
96d1
92a8
a676
a70e
a70f
a508
ae81
a322
b778
b239
b5eb
b3eb
c80f
c205
d909
de0c
e61e
f9fb
f7b8
31ba
69c5
657a
28d2
0aab
0403
04e6
0d8c
3a39
25f6
2e4e
610d
6195
61ce
61eb
61c3
18d3
dbde
db92
ac3d
acb9
ac4e
da14
daa5
da41
3898
11b4
45bf
442c
4186
236a
6e3c
2abc
10c2
13bd
13f1
13f3
24ff
24f1
24e1
0f38
0f86
2df5
2ddc
33e2
6fa0
edf3
adfe
ada6
51f5
1475
14df
f17c
583c
5889
3fb0
21c7
5faf
5f2b
5f87
d162
d1fc
d11a
8d0d
8d5b
9101
91ee
8118
c1df
a179
d414
d4e5
5d3f
78d8
9dd1
fdd1
a4cc
847e
94d5
e474
1fa1
1fd0
c4ed
b8c5
b855
b853
b8a3
b818
986b
981f
a8c6
a8df
cf6d
af05
bb6f
7f32
7f7c
7f99
7fd7
8f8b
ea72
ea5f
093d
5a5d
629f
62b8
d09a
7ebf
e663
e662
ce54
aa6f
aa3c
9a03
9a5f
9a5e
faf4
1a35
197e
5e97
ab73
ab39
9e97
8ef5
3e03
dc7a
d590
d59e
6068
6095
6029
5b71
902a
90c8
909a
f02b
f0e3
a078
a0e7
2b73
2b71
2bcf
4077
fc2c
ebc8
b92c
3b90
1b9d
e0e0
e07c
bc0a
5c71
8c9a
9c37
8525
857f
85e0
89de
c977
e975
f94b
b3ef
f270
f22d
200a
b230
9774
97c1
879f
e76d
c73a
d6ec
b046
b0da
b0d3
76fc
d2eb
5f13
86fb
914c
96ff
bad8
d28e
b016
62d5
a694
cc15
3019
6ff8
3e18
7e12
92fb
fc56
5a10
5513
82f5
ab85
9215
8b17
52c6
52c2
97f5
c244
c2f1
a0ae
368f
c58d
93d2
2bb5
d64d
e7f2
221a
3388
ec59
5bd7
f287
8ded
6a82
3b87
2544
f2e9
9f46
3de8
7cc8
5c41
5f41
c285
1bdf
0644
cc4f
ed45
7ceb
33f6
0be5
16d9
16d5
120b
15e5
3ed6
39d9
4623
47e0
5ea8
5eaa
56da
6ec1
6ed9
660f
8ea5
8233
8b51
9202
96ce
9be2
99e0
977d
a666
a20e
a2a9
a5ca
a3e6
b678
b9b8
bb56
c908
c6bf
c6cc
c999
c7bc
cb0e
c7e8
d070
d6db
d809
d6cc
d6ca
e708
ebf8
eaf2
fedc
f3a5
f9db
f9c7
f2b6
fa05
69cc
54c0
54f0
65dc
28bf
28c7
0d7d
0dee
2f5c
3a1d
2519
251b
034b
61aa
18d8
db8c
acf8
da67
38aa
4b01
4b25
114d
4fbd
75ce
755f
44d3
cd6f
cdff
cd93
cd1b
34fc
2360
2cd4
57db
08cb
80cc
4a2d
359d
247c
2d25
3303
ad1c
b12d
b15f
b1e5
144e
f131
5810
6d7a
6df9
1dbe
216b
d18e
9121
918d
c12a
e1e0
e1f2
d4ac
5d1e
dd69
9d9e
7dcf
d8ad
d864
d8fb
a4ff
a43c
a408
84cf
94a6
1f65
1fa3
c4d3
c44d
b83d
a821
f824
f89d
f88b
af36
afda
bb3f
bf54
7fd3
7fdf
8fea
7292
4eb5
5a05
6c0d
d061
d07f
d0fe
d058
d223
de3c
ceff
aa3d
9a9b
7a25
7a2c
7ab8
ae25
ae39
ab3a
fe68
ee7f
9e57
790a
3eed
3e7f
b020
d573
5bac
f02a
f095
f056
fc32
eb3b
fb31
fb38
cb9a
3b74
8b64
5c3a
b521
8c63
8c7f
8c76
9cc2
8573
e5ad
896a
d978
a391
9392
937a
839f
8276
f225
9271
d7c1
b79b
2761
f765
06ac
565f
435b
265c
12cc
bf11
66f1
ae1e
77f1
77f5
5687
affa
ce1a
90db
538a
5385
d0b6
9e1a
92dd
2b1c
c91f
7c12
c515
52fb
c210
57f5
b08e
ee1f
8b1a
de1a
a727
ec19
c002
eb8d
eb86
f4b0
0c11
854d
b2ed
528e
dac0
cf58
02e6
3911
0c5b
d55a
d55d
5cd0
ccc3
b653
bf4e
9ce8
8bdd
3b86
72c2
6cc0
958b
9589
bb89
e722
f2e4
472a
1f45
fbae
ec4f
8f4a
8d46
0b4f
cc46
0cce
3e40
3e44
a355
8f5f
a3f1
b951
eb43
c5fb
f5fa
e33f
0e04
07e0
1615
2bf8
29dd
3615
3e05
3705
3c22
49f9
4efd
5ecc
6802
663f
6619
66a6
6ab9
79c9
7ec3
7ef9
7504
8efc
8e27
9ed0
a6ef
a90f
aed5
ab09
a329
a5e9
b6b8
bef9
b7e9
ba26
baf9
c63d
cec6
c3a8
c90f
c7b3
c3eb
d6d5
d57a
efe9
ea28
f61e
f2a5
f608
f77b
3112
54d8
287e
28a7
0ad6
0445
327f
2f5f
3adc
2526
2e52
2e1f
613e
487e
4819
5025
db9f
ac75
ac3f
acb5
daa7
daa3
38cf
4fde
4197
cd45
3421
23e8
2c31
6e9d
129c
57e7
2a3c
6403
b47a
10e1
46ce
13fe
13f5
133b
13e4
13f6
4ab1
35ab
100e
2421
24ae
3dd6
68fe
68e5
c803
c875
3393
6f27
6fb3
ed57
adb6
518c
51df
58e9
6d9a
1dce
3fdf
71c1
71e6
71d1
5fac
d131
d1ac
8db2
c192
c1e7
ef7c
efd1
d4ef
d405
5dc8
5d10
dd54
dd57
ddfd
9d62
9d75
9d5f
7dbc
a4f2
a412
8455
94fa
e41d
f453
f4ee
1f8f
b8b4
9801
a838
f86c
f822
8862
8873
cf2b
afdd
bb32
bf4b
bf7b
9f37
df3a
dfc4
ccde
5aee
6a7e
de71
baee
9aee
fa04
99ce
1a30
1a4b
cab0
0e69
5e98
ae2a
ae76
ab71
ab9c
fe6e
fe52
9e58
9ebe
43c2
539e
b0e1
d56b
f072
a053
2b3d
4064
4099
fc3d
ebc0
b9ff
a557
3b60
3b84
0b20
c56c
c5ef
8c31
7c6f
9ca4
ec7c
d9ce
f974
933a
939a
c398
192b
8364
760d
76b1
f360
f2b5
c264
b225
d768
976e
87c4
26bd
1305
d668
c60d
2509
12d9
d913
c149
701d
d2db
5911
9694
0690
ce13
5e1e
d287
cac4
621a
6218
668c
5389
5b16
72f7
631b
5a15
9916
065d
e0af
ca16
9de3
52e3
3b17
92ce
428d
b34a
9251
f0b0
8de9
a0b8
6de4
ce40
8b4c
5cc3
1585
c94f
5f49
37d3
230c
dc4f
5e43
9baa
3b42
3781
8359
0f40
a5fd
bc4f
a3fa
d75e
ef45
8759
0927
1678
1777
17ca
3b4b
390f
4616
47b6
59db
59b2
59d3
5be9
52b9
6506
762b
79d6
7aa7
8996
9206
9ee7
ab5b
a578
aafc
b626
b6d9
b23c
bb27
ba07
c635
c70b
cedf
c6da
cb29
cbe2
ccf2
c5e3
d80d
d63d
d73d
dccd
d9e9
d235
d90e
e326
e806
f31c
f9bf
fcb3
69b9
20c8
65a4
65fd
0a77
0a1c
0d96
0d97
0d8d
0dfc
2ff6
2537
25d0
25cb
67de
2e27
748e
ac2d
30ed
30b7
75e4
75b2
44e1
cd19
cdd1
34e4
2322
6e7f
6ee2
6e40
57df
2ae4
b489
102d
10ee
1397
4a40
35cf
24f8
241b
0fb7
0f1c
2d56
2df0
3d81
68e6
c864
c82a
c86d
33e9
6f06
b11c
51bc
58f7
6df7
6d10
1d9f
1db5
215d
21b2
7184
717a
7185
5f67
5f3f
5f8d
5f8e
d1ad
d193
d1ae
8dea
8d9d
8d96
811a
c135
c1a1
a1ca
a1b9
e156
efd8
d4f1
5dc9
bd34
9d15
7d7a
7db5
7da9
7dda
d8e6
d88a
fd99
a46e
a4e9
843d
848e
e4fc
f470
f445
c460
c4c3
c4e7
b82e
b89a
b8dc
a8fe
a860
8866
e834
e8c8
e883
bf71
9fc9
8fc2
dfbd
df7e
729a
cc0d
ccf5
1c31
1c34
5ae3
ccee
557f
d04b
de69
de6f
ba9a
ba0f
0c90
8abc
fa96
99c8
1a84
5e0a
ae5b
ab54
fe3d
ee6d
eeb1
432a
8e9e
8ee2
b0ff
b0f4
b029
d525
166e
60c2
60e7
5b67
90ed
4078
eb57
eb9e
9b37
fb95
fb55
b965
b9ec
3b03
1b57
9c94
893f
899f
a964
f9de
f99f
a3cd
a376
e369
2294
2296
2297
f2ec
f266
b22f
8793
e7ad
c767
d6ac
8675
860b
250a
5007
b14a
a005
d68d
6b1f
e0da
26f9
5e12
dc81
fc89
5b1c
b2fd
3718
3e12
ccd0
e4b6
2b1e
af10
b0bf
3693
c519
8718
ef1c
df13
b2db
b2df
47fe
e651
a28f
b21c
e517
c68b
f0a6
2c59
8515
8a1f
82e9
dde9
60ba
0743
8744
72c3
fa85
2b83
8b49
f54d
1f5d
e784
158d
c94e
fce0
a940
ef5c
0945
9b41
0ba5
fb49
295d
c3f8
b5ab
06dd
0b0f
0fe9
1af6
1529
2627
26a5
26d5
367b
3902
43e5
59d8
5feb
5cae
6ed0
6c2b
6a21
7c27
8802
8209
8cf9
960e
9235
a789
a807
a660
a3ae
a57d
b9bf
b9dd
bca3
ceac
c6a6
cbeb
c50c
ce27
dec4
d611
d6c7
d805
dcfb
dca6
e937
f679
fe85
f90e
fa29
f3c7
31fa
692d
2072
209c
501d
65fa
2859
285e
281f
281a
0a69
04fe
0471
04f7
32cb
258d
2518
67f5
673f
0371
03db
03d6
2e24
61ec
61f2
182f
18b9
63f9
50ec
ace2
ac0c
38b8
38fc
4b0a
11c2
1122
1182
11d7
457c
4522
458c
cd0d
cdc1
cd3c
cdf6
cd13
34fe
2361
239b
02b7
0218
6ef5
1293
2a6f
2aff
2aef
b49e
b4ef
b429
b415
1067
460e
08c1
0f2f
2d66
2d11
2d06
3d0a
3d06
6891
6812
c879
6fbd
adb4
b172
b13f
b1c1
b1ee
5194
145e
582b
58f0
6d93
3f0b
21dc
21f8
710a
71ce
71b5
5f88
d15a
d1a8
d1c9
d1d1
8d14
8dca
9167
c1b9
e17e
e176
ef2a
d498
d4c6
d4e9
5d31
5d94
bd82
78e0
9d3f
9da0
d858
d836
d82b
d8d8
fd6a
fd90
a454
a436
a481
a4df
84cc
94e7
e456
b8d5
98ed
98fb
f862
8855
cf96
cfd5
af6f
afca
afa0
bb9b
7f81
8fae
dfce
cc72
09ec
ea13
cce9
55c1
55b8
d09b
7e32
597d
7b90
d22f
d2bf
de97
ce7a
baec
ba2a
aaff
9af1
8a36
535f
7afe
7ae2
1aee
be75
be0b
ae3f
ae7e
1e28
79c2
437f
3e56
b06c
b07e
d591
1654
5b75
f0ca
c084
fc70
fc66
eb23
eb7b
ebef
fbf5
cb3f
5c2f
c5fe
8c3a
7c69
9c30
9c9d
3cb2
893a
a9cd
e96e
52be
b32a
8295
8260
f276
9290
b2ea
d76d
f792
f7c0
703f
0711
2508
6c5b
14b2
d6f4
8840
6013
2ade
e14e
5695
335f
4add
5c8d
cff2
6b1b
aff5
bff5
e0d6
ce15
96fe
d288
64bf
a743
12e8
12e4
1ffd
2b1a
af12
b0b7
b0b3
2314
1acc
7c8f
bac7
a217
07fa
6cda
57f6
40af
b086
0317
eb82
b3d9
5de1
cf4c
2c5a
8241
cc87
fb8e
7f13
8543
5bd2
a3d0
dde3
2ded
b5df
b786
60b1
ede1
b3b9
e5d2
6cc8
6cce
42e9
cbd0
e3b3
40b0
40bd
27d7
f3d0
c085
5c42
3946
70b2
e746
6ce8
df40
733b
ef4d
175a
85a7
b335
b33e
833f
06e3
0623
07b0
16eb
2bc9
27c7
36e3
3e29
3ee7
49df
47a6
5c04
59b0
598f
6ec8
6660
6b5c
6fe7
6bf3
6cab
7e22
7ef6
83a4
8ca9
8929
87c3
8af7
85b7
9809
9607
a632
a7a7
b926
b736
bece
b902
b7e6
bbe7
c809
ced6
c93e
d634
dec7
d67c
d804
d9f2
d77a
e62d
e6c8
eefa
efe5
e577
f3ad
f9fd
fbe3
f7ca
31da
20a0
540b
2831
288d
2882
0aeb
0a13
042e
046b
0daf
2ff0
2f42
2f41
3ab3
258e
6714
67e9
0360
0393
615c
610c
1877
63b1
637b
63cb
db2f
dbe4
db81
db42
acce
ac3c
ace3
ac0e
dab8
da8d
38f7
44a6
4123
3425
2366
23db
029b
7085
5703
2a3d
b4ad
b456
1073
106b
46d4
802c
24e0
3d0f
3dd8
688e
c894
ad73
ad04
b159
f1cf
f1e5
6db0
6da5
1d25
3f86
2189
21d5
5fd8
d119
d185
d1f9
8d9c
8d16
916a
9156
8163
81ef
8197
c16f
a10b
e165
e1d4
e1aa
efd5
d43b
d46d
d41c
d440
5d53
5d79
5d1a
7823
dd2b
7d33
d8d4
d860
d8df
fd7e
a452
a418
8465
841e
84d8
e4c2
f402
9855
3795
a89f
f8b8
f8bc
8811
cf7e
e8e2
397d
db1e
af85
bb0d
bb3b
bfbf
bfb6
9f3f
7f21
8f22
df2f
df8b
168d
7298
7293
cc95
cc3f
cc96
ea73
eab8
0903
092f
09ce
099a
3ba5
0956
6b9a
d0c2
d0ee
d0eb
59cd
59c0
d27d
de2f
defe
ce72
aa3e
9a0b
1a64
0e5c
5e72
be20
ae98
ab6a
ee91
9e63
9ee6
1e59
790d
5394
3e3d
3e58
dc2c
1669
60cb
f07e
fc77
fcb1
fc96
eb66
eb28
eb76
9b70
9b24
b9ce
1b32
bc91
5c0b
5c7e
c5b8
9501
85de
15b5
e591
8991
d9d4
d994
d992
f52d
4224
c320
836a
47c5
229d
f284
c201
b291
a730
f7c2
f7a1
130c
d0ae
d631
d63a
a654
a631
b631
0717
071c
d84d
c045
d68f
a6fa
9698
8ac7
5c81
568b
568e
604f
aff8
f039
cad5
5e10
90df
f042
5c1b
64bc
d5d7
6ffc
d715
9acf
d085
7acb
6cd0
32f6
e38f
8c1d
1258
eb8f
b3d1
ba1d
fa19
3cda
30a1
aa85
ab18
a4b6
9516
80bc
074a
bf46
c2d2
72c6
a0b6
5b4f
9c4a
7ba1
1bd7
9a42
fce5
d94d
1cef
8ba6
1c42
6304
f30c
d75d
83f6
a5a0
c75e
33f7
b5f7
b0f8
0636
077b
19d8
157a
2937
29fc
350d
47a3
7627
7602
77b2
8b2b
87a4
8526
99f0
a6db
aea1
a7b5
bea3
b610
b3ac
cef8
c7b6
cbf2
caf3
d23d
d623
d704
d7bc
e67e
e9e5
eee5
e7e2
f6d9
f806
f705
fefc
faa9
3103
3192
3191
31d3
69c8
172d
2078
652a
65e5
2897
3201
0de2
038c
610b
485c
181f
74a5
dba4
dbe6
ac5f
dab0
30ce
38c4
1102
758b
cd6e
3484
2c19
129d
2a9a
2a1b
46ca
088c
8070
13c3
4ae5
4a1b
0fa0
2d6b
c8d2
c8e7
ed24
edc4
ed1c
ad9b
ad26
73ec
739b
7798
5112
141c
f193
585b
6d2d
6db7
6dfa
1d60
1d1f
71d3
5fa1
5f0f
d127
d1d8
8d27
9164
91f1
8196
a192
a1d5
e1fc
d4e2
d40e
5d9f
bdbc
78af
781b
dd2d
9d5c
7d7e
7dca
fdfa
a4ef
f454
f47f
f4e1
c4ce
c47e
c40f
b872
b822
a88c
a883
f8ad
f8f4
8870
cfed
cfd1
e894
e892
e8b1
39d4
bb9d
bfb5
bf96
9f6b
7f96
7f2b
df2b
729f
1c71
5a7c
6a3f
6a60
6a5c
6aeb
6bde
7e2e
7e67
7b3f
d267
4991
ce03
ce14
aa7c
fa65
1afe
ca56
5e55
5eb8
ab20
fee6
9e6d
1e5d
3ebd
b02e
d5f5
1675
60f1
5b7c
9071
f0ec
a07a
2b2a
404b
4055
9b61
9b84
fb28
b9f1
a528
bc78
bc9c
9584
7c9a
9c6e
e52e
d96e
d964
d97a
29ed
2977
f59a
e978
4221
5201
a330
93ff
c36c
e3ff
e395
760a
f365
17de
1766
b22e
b79a
2731
279a
7b18
d60d
a6ea
c620
c665
6b40
d144
24b7
d91c
1343
9149
bffd
82df
02f5
26fc
531f
cc18
c694
92f7
d089
d54b
e031
b0a4
d749
bac1
c349
32fc
c21e
c212
57f9
c71d
c71e
c242
1251
125e
3c84
834a
3cd0
2719
ba8a
f31a
3b1c
a317
938f
4ac7
cf55
972b
e349
5c5a
1516
151f
a651
a2c8
ccca
83da
b3b2
a2eb
8bdf
c0bf
3c59
47d8
77dd
1d40
fba4
a30f
7304
3deb
af4c
5ce0
9a40
e0b7
8ba8
dccf
73f7
9956
1751
0ed6
0b5b
0ef9
0fef
1709
17a3
16dc
157e
1aa5
2982
2bf0
3707
3b0e
3efb
47b0
5e0f
6ea8
660e
66d1
66c6
66cc
66c3
66a4
62b6
76b0
77e0
7e8b
7edd
8937
8bc6
8fe9
9be6
9b2b
a937
a7e1
becf
b202
bc09
c666
c797
d671
d66a
d733
d60e
d70c
d905
d226
d7cb
e7af
e6ae
e9aa
e98e
e73f
e507
efe8
f7b2
f7e0
f7bf
fca0
3125
31f3
693f
20e1
208e
287c
2843
0a81
04fa
32ab
0dcd
2f8a
3aea
3a78
25c8
25fd
6790
2e9f
61a9
48f1
6382
50be
dbc1
dbeb
db05
ac72
ac03
ac0a
aca9
ac8a
da9d
4b07
11c8
4fc3
4f8f
449c
cdb2
cd02
2397
2c4b
2c46
6e7d
5719
2a20
b436
105e
46aa
46d7
0814
1399
4a81
24ac
0f01
682c
6824
6814
6898
6885
c8cc
c85e
c8cb
33ea
ed39
51ba
51cf
58dd
58f2
6dac
1d93
5fc5
d1ec
d108
8dff
8d3f
8d5a
8df8
9165
913e
efd6
d462
d4fe
d43f
d4c1
5d6f
5da3
bd8b
bdf6
78de
788e
dd1f
dd1b
9da3
7d6e
d820
d86f
a475
a46d
a4a9
84d5
940a
e498
e415
1f66
1fd8
b87e
9865
98c2
98e8
3703
3791
a828
f8f5
f8d9
cf98
9f4b
7fd9
8f21
8fa5
ea3c
5a7a
5ae1
cce4
6292
6b2d
7b3e
d2bc
e670
ba95
9a3b
9aa4
8a99
9968
5e31
be23
bebd
aebf
ab0d
ab36
fe3f
ee72
9e34
792c
437b
8e95
3e52
b092
b076
609e
5b2d
f074
f024
a096
4098
eb93
fb9c
cbc5
b90d
b9b4
b971
a5ac
a573
8b74
8b7d
8c72
9590
7cde
d925
d9b4
290a
c9ac
e971
e979
e331
8290
92bf
b2b1
d7b1
9603
e766
d0a6
b674
f66e
103d
d6ff
6696
669c
24b0
6019
5ada
d699
2ad7
c0d6
f69f
e0d4
8697
96f0
82d4
7007
a34e
7217
5381
6ac6
a24e
60a6
371c
2692
c69f
8e1c
27f4
9f1a
c0ab
2313
7c8d
7314
a21c
32f1
eac0
6c8d
52d4
40a7
40ad
291b
e91c
0684
7ff3
c7f9
abbc
b3d6
c38a
22ed
72d2
70a0
ebba
cc8a
428a
ec5a
fcda
d555
e5d9
874c
8cd9
f749
f2c8
e7d0
f71f
b542
77d0
ea86
10bf
42c8
7baf
7cc1
b74c
a94f
864e
864f
aa42
7339
3ce6
e306
d5a8
a952
e5aa
0ea6
09aa
17a7
17b2
1bf7
1aa0
2612
26cf
2beb
27bf
22ab
3ecf
39c9
3b06
49fb
42a7
52ff
570e
5b5b
550f
620b
66df
76cc
86e8
89e9
8e8f
85c7
83e9
a6bf
a9c7
a2a4
a3c9
b63c
bbee
bcb6
ce05
c7e1
cbe9
cfe8
cc02
dea0
d20c
d6d2
d7b2
d23e
deb6
dca8
d597
e6e2
e707
e6cb
ebf9
e32b
f9d9
f60f
f7ee
f5c7
31ac
69e0
698b
65f3
658b
658d
047e
0da1
0d37
0dd9
0df8
2f2e
2fc8
2fa9
2f89
25c4
6795
67d3
037c
2e89
6103
61a8
6106
18ee
18ae
181b
638a
63dd
508e
db72
acc3
acd3
daf5
da1b
30c1
3840
4b1d
4fab
459b
45a7
45d6
7523
75cf
4103
4160
411d
4183
41f2
cd75
cda9
34ea
23ec
23ce
2c69
6e12
70f5
2a05
64a4
641d
10cc
46db
802f
80c8
8055
13b5
240b
0faa
0f08
2d18
3dde
685f
6fc2
6f92
6f8e
ad93
ad82
b1ed
b1d9
b11b
51ef
588c
1d5d
71c4
71f7
5f93
8dcf
91b5
91e9
817a
c178
c1d8
c105
a1ed
ef6e
5d08
78e4
ddfc
d85c
d8a9
fd3f
fd13
a498
a409
8472
943e
e43f
e471
f47e
f44f
1f9b
1fd7
c4e9
b860
b85b
989f
98c1
a8d4
a8ef
a817
a887
f8f3
8824
cf14
cf66
cf9a
db16
af20
afbd
7fd2
8f84
df84
dfd0
72b5
cc65
0954
6bc5
d051
d0e5
7e96
7bf4
e668
de3d
0c2a
aa2d
8a9c
99f5
997d
7a93
ca14
ca98
19cf
0e33
ae32
ae84
ee65
ee57
9eba
9e21
797b
dc2a
dca4
dc7c
dc99
d565
d567
606f
60c3
5bb4
9069
902b
9b55
9b9b
fb54
cbe1
a52e
3bef
0bed
0b68
1b25
5ca1
8c62
8c78
95cd
ecfe
856f
079c
e574
e532
e5c0
29ff
a97f
a93b
e9ac
42ec
42bc
3729
9303
c332
b39d
e3ce
a224
a2bd
a276
f230
c2b4
d720
9654
b76b
2762
276b
f7ff
e7c1
c6ec
5006
103a
12db
d03d
8001
d91d
d693
dcd5
7699
a6f7
86fd
e016
5682
6049
a0d8
02f8
7009
b01c
5c16
a242
5b1d
b2f9
f01f
9e18
c01c
ccd6
effb
d728
52da
de1b
97fc
e91b
fc19
421b
b3d0
c383
e659
f588
9de1
ab1f
93d0
72eb
b281
e7f3
5a82
5bdb
b7dd
1652
6a8d
b3bc
8cd2
f729
e7d6
fbd2
95d9
1d43
c940
f55f
f945
7ba6
fc4e
37d6
ea4e
b95e
d95e
53f7
c5a5
c5ae
c5f6
15a3
0632
0616
06b7
0618
0989
0b26
09e6
03a0
1be6
29a7
2b5b
5ecd
59f6
5805
5988
5b5a
5984
5efa
592b
53ee
6ead
66a7
7202
79df
73a6
7b06
7e0f
7aa0
82cd
8bfa
8af2
83c7
96e7
99d8
9ea0
9909
9cab
9321
95e5
93eb
a6c1
ae8e
b6a6
b7b9
bbfb
cec1
c9df
c7af
c6b9
ceb6
cca5
caa0
caa5
d6c8
d796
d227
e9fc
e539
faf2
31c2
31d2
69e7
1727
202e
54f5
54af
501b
65d4
6513
28ae
28e3
0ac2
0ae0
32aa
32ae
0d08
2fac
2f6e
2f1b
3a6c
67be
671a
0320
0367
48de
186d
db91
db8a
dbe7
acdf
acd8
da5f
3099
38a4
382b
38c7
0809
4b1f
4fba
75e7
4496
445b
4119
34ce
23d4
239f
029c
2cd6
6e81
707a
10f9
0866
80f6
24ad
0f13
2db2
2d44
3df1
688b
688f
68f2
33c1
6f2d
6f3b
6fc1
ad9e
add9
73ef
7799
f10b
f1b9
f182
585d
58b2
6d0a
6dda
a256
1d26
3fc2
3f7e
3fc1
21b6
71ac
715f
8d71
9120
91b4
913c
8168
c14b
a19d
a1f2
e16c
e109
d463
d41e
5dc4
5d7a
5d83
5df8
78b5
78dc
788a
ddb2
9d82
7df5
d861
d87c
d856
d8d0
d88b
fd0a
fdfb
94c5
e4e8
1f86
c419
c4d2
b8b3
9834
983c
a815
a8b7
f892
f8e7
8832
886b
88dc
88d8
cf30
cf32
e826
e8d7
3993
af27
9f77
9f05
8fd1
dfb3
cc7c
ccb2
1c74
1c98
5a36
6ced
6aec
6ae4
6a07
7e38
7bf5
d225
d22c
deec
ce75
cee1
cee2
8a96
fa4b
fa57
99ec
9969
99f4
ca37
1924
be63
be58
fe69
fe7f
ee2a
9e67
1e0d
79a1
539c
b099
6062
6075
60c9
5b6f
5b79
2b35
2bf4
2b96
40f4
405c
4056
fb69
cb94
3be4
0bc2
bcff
bc7a
bc37
5cff
5c36
b598
8c7d
7cfe
7c9d
9c67
ec3a
159c
e531
e5bf
8972
89fe
d973
f56e
c998
e938
f90a
423a
9378
9379
9396
83c1
4793
1703
8293
229f
d793
962f
a720
a7b1
f7ce
e73a
a674
a6ac
0c0c
d0de
669e
f841
e144
46f5
d4ba
4019
16f9
a5d2
d286
4699
30db
d65b
c259
5b18
bb10
a713
b0be
5518
7ac5
778f
1c10
6bdd
cb16
4383
431a
c58f
f31f
62ee
1dee
1b11
a581
bc5a
ec84
17d1
5c5d
2de0
b78c
e5dd
c743
ecd0
6cca
6cc4
47db
9582
83ba
ba4a
ba44
fc4c
7c4d
2baf
9a41
a3b7
f35a
53b1
ece7
cc49
3e4d
b553
b55f
1e4e
275b
73f6
9751
3955
c751
9337
e33c
0eaa
070e
09c9
13a4
19b3
17e7
1bf2
15b6
2ec7
29af
273f
2bfa
22b7
39ae
3b5a
4e8a
4996
47b5
5a27
5ead
56cc
5660
590c
5e09
6beb
72ae
7fe4
7af8
8ef7
8771
8cf0
9c26
980a
a66b
a6e8
a6be
a9d2
a9ab
a7e6
afe7
b9f7
b7e8
be2b
b796
baa6
c9d5
cb0f
cfe1
d9a3
d508
e67d
eed3
eb5a
e987
e7e3
f615
f989
fc08
31cd
3193
2091
540d
547f
541a
65bd
28ce
32e9
0d74
0dfe
0d9c
0d18
2f2f
2fc5
2fc2
2f68
3a8d
3aa7
259a
25b0
679c
67a0
2e88
61ca
61e9
18a0
63b7
7402
74df
74e3
74f8
ac79
0807
11f6
4fb2
4ff7
4491
cd82
236b
235c
2326
2387
026f
028f
02b3
2cfc
1240
2ae0
645f
b46d
b48d
468a
46d3
08f0
80ed
136e
352f
24f3
24fc
2d3e
2d2b
3dd3
68f5
c87a
c8ca
6f0d
ed9f
ada9
73e7
b1aa
b18b
51f4
5115
1456
f120
f121
5823
58cb
2113
71f4
71a4
5f7b
d12e
d17c
8d7c
8dd6
811e
a138
d464
d4e4
d497
5dd4
5d9e
bd81
bdd8
7824
781c
dda8
9d05
7d75
7d1d
7d1a
d834
fddb
a45f
9439
9427
94d1
e4f1
f4af
f443
1fd9
b838
b8da
98d1
a8bf
a8dd
8801
cf21
cfa4
cfaf
e828
e8fd
39c5
bb03
bbfe
bf0d
9f06
7f33
7fa8
8f6a
8f28
df91
72b1
cc0b
ccf1
4eff
4eb2
5a6f
5a3e
6c60
6c39
6291
6b7f
d02e
d06a
7b57
d293
de9e
baed
ba84
0cc2
aab1
9a72
8a7e
8a5c
7a6e
1ae2
caef
5e3f
5e60
5e3c
ae7b
ab38
9e9e
1e25
1e79
792e
d57f
d566
90f4
9094
90e1
9022
fc03
eb75
cbde
0b92
0b91
e096
b562
7c66
9c9b
3cb4
2961
2966
f524
c94b
e932
e9f1
f925
f9bd
52b8
c366
e39f
9225
c29f
d701
879d
f76a
c79d
d667
063a
071b
7940
12c7
14b5
365a
9842
e14a
46fb
0697
6adf
e0d5
869c
d285
8030
9ad2
62d9
30dc
d58b
5b15
dad1
9242
9a1c
5519
2312
f2f2
991d
52f1
c71b
0655
df1f
e913
d7d2
cb12
22d3
3c8f
a288
0915
8310
c58b
2c56
b2eb
cf5b
fe18
22c9
dde4
dde1
2de1
165f
b784
cccb
edef
c723
f727
43b0
c0b4
fbb7
bb46
6282
9786
e3b9
8b4e
c542
c54f
5ba4
9c4c
9f45
f940
1cd5
fde1
df52
a3bd
e743
830b
3c4d
8e42
8f5e
9305
875d
c95d
c5a0
e5f2
e0fb
06be
0ed4
0706
07c9
180d
19f9
150a
15c9
275f
2735
29fd
393e
4202
56ed
59df
550d
5a22
6eab
6c06
780d
7ed7
7908
76c9
8c26
89ee
823e
8322
9ea8
9902
9660
99f3
99d0
9be9
9fef
9e8e
9ca0
a6e5
ae26
a9d7
a20f
a7a3
aefd
ae0f
ab05
a921
aaf9
b6c8
b9b9
bb52
bfee
c31c
c602
c6ce
cbc3
ccf3
d80f
d9e1
e6ed
e629
e77d
f6ee
fec2
f9a3
f506
f7e2
fc0c
3114
6925
1721
20d4
20c7
54ba
0a2e
04c4
0d78
2f0a
25ad
25e2
670c
0374
0340
2e3b
2ed1
2e07
61c2
61f3
18ea
183c
18f7
188f
184c
63fe
6391
db61
ac94
ac21
da03
dabc
daf0
da42
30ea
30b2
38ce
3827
112d
118c
4fcc
4fbc
4f1e
458b
75a1
7584
759a
4488
41ac
41b0
23d6
2cf9
705f
571c
2a92
2a59
2afa
b421
1072
1091
358e
1006
2420
0fb5
0fd3
2d91
2d19
3da3
3d1a
c8c9
edc7
adf1
add2
77c6
b1ba
b1b5
f164
58fe
58f6
6d2e
6d7b
6df1
6d15
a253
216e
21fe
21b1
2187
5f34
d155
d19a
8d6d
919b
91a6
911f
91e3
91f6
81f1
81b5
e16d
e1b0
d430
d42e
d4c3
5d29
5d82
78ef
788c
9d65
9d2b
9df9
d872
d87e
d8e9
a42b
842b
841d
848b
84a7
8406
9433
e491
e4f6
1f14
1f39
1f27
c474
c4e4
b84b
b864
b882
b81c
f8df
f8e3
8868
3971
3938
399c
afec
af92
bb76
7f26
7fd6
dfa8
cc2e
1c2a
5a62
5a6d
5a08
6cac
6bcc
d05c
7e6b
ceef
ba20
9a54
7a04
1ae4
1974
1973
0e56
5eed
5e93
beb0
aede
fe93
ee2f
9e79
1e54
8e3a
5b62
5b9e
9025
907e
909c
2b9e
4066
405e
fc6d
eb32
eb77
9b91
fb6e
fb7e
fbe8
cb6c
cb98
cb21
b903
b93a
a59c
3b39
1b9c
e02e
e09a
bcfe
bcf5
c530
95c4
8575
85b2
0792
e5f1
a96d
f594
f5cf
f973
4293
a377
a397
c390
47e4
b3c5
179e
f261
f268
92c5
c231
97d4
703b
10da
d01d
14b9
765f
601b
7019
2ad2
d51a
77f7
b913
70d0
e699
8e1d
d712
b6f8
12e7
92d9
d083
e03f
4713
1acf
7310
07f7
224d
82f9
94b7
b317
1e13
e0a6
3c83
f587
2681
5de6
900a
9de4
7a11
aa81
c3d2
62ed
b28f
8c5c
428c
97d7
2bd5
cf5a
bc5f
0e4d
e086
0c56
5cdb
7de9
a55d
f721
cbd7
1f4f
fbaa
15da
7306
9f40
f552
b643
8283
bd4e
ecc8
53b2
2b41
be49
9306
e3f2
d5f6
395c
b75e
175e
06e6
098a
093c
0c29
0fe5
1ea8
16bf
16af
1c24
1e87
2208
270f
26b8
26c3
2b5c
3611
3806
39e2
36c6
398c
4efa
423c
4ee7
5ec6
567c
56c1
63aa
62b3
6c05
7ecf
7b52
86d3
89f0
87e5
8a2b
9708
95e3
9ab9
a67c
a2a3
a6a8
a9eb
b9e9
b6ed
b6c4
be82
bbf6
b7c7
cb4b
ce06
dfff
d6d0
d70f
d6b3
e3a9
e9dc
e7e7
eca7
f996
fee3
fef2
69ae
208b
54fa
65ba
28b0
0a37
0a1b
045a
32ce
3281
2fa8
2fb9
25a1
2596
670f
6715
037f
03d0
619a
18bf
6388
7494
50f5
da33
3814
4f8d
4f1b
4f12
458e
75dd
41dc
23f4
2382
02b1
027b
2c43
6e24
6e84
70e9
5711
2ab8
2ae3
64d3
64d8
640e
b4ff
b45f
b4df
b4e5
1060
1045
46ae
0868
0891
80ca
8049
1392
135f
4a2a
35b9
358f
0fba
0f14
2dce
3d2d
68c2
c833
339c
ad4b
ad5f
ad3c
732d
7394
b186
b115
1494
6dc8
1d9c
1dd0
3f26
3f8b
7127
71f0
d1ce
d121
91e4
c1db
a1e1
a1cb
a106
e1b5
ef9f
d406
5d37
5d05
bd72
78ad
781f
dd67
9dc4
fdba
a47c
84c7
84e9
94db
9446
9441
f47a
f4d0
c451
c4d7
c4fb
b803
b8cc
b8ef
9872
986e
985d
98e3
37cd
f8ba
8837
88fb
cfbc
e8b7
afab
bb84
bf22
7fa4
8f63
8fad
8fb3
dfd4
ccb8
1c38
1c9e
6a5e
7e5a
590d
7b65
e66f
ce95
8a69
9973
7a73
7a56
ca03
ca62
5e96
be68
abec
ab62
fe23
ee69
9e0d
9ebc
1e77
43c5
8ee8
d574
5b92
902d
90cc
f059
b9de
0b99
e027
bc7b
bc3c
b590
c5c0
8c30
8c70
95c1
95ee
9cfe
9c3b
3c73
ecea
1566
0701
e5b8
d9b1
29fe
299c
a96e
f52f
c971
e94b
f901
42bd
c3c0
c39b
c3e0
923a
9293
b26c
703c
b672
b654
b66c
12c9
404f
6c5d
d015
a515
403f
f6f7
5f11
66f3
bc18
b038
77f9
f69b
600c
a045
d28c
d585
903f
d5d8
6ff2
9acb
ccdb
9f13
d540
0c84
07f1
1913
1919
52df
1712
a682
ec15
8915
4213
abbd
a285
b215
5de7
44b5
84b3
8b8b
72e7
72e4
c2ee
c2e2
a314
2286
8545
9383
c784
f919
cb87
ae44
b3b6
e5db
c7db
33b8
33b3
772f
43dd
fce9
154c
154f
ece8
ab4c
aa4e
fe42
2759
73f3
d95a
f3f9
295a
d0f2
c5a9
0617
06dc
0cf8
1636
1802
2737
2b0f
2797
363b
373e
3fe7
4ed2
420d
47bf
56a6
5ed4
59ee
5e05
523f
53cb
62a8
790f
7b0f
7ee7
8927
87e7
8aae
9ec0
9b51
9b5d
9caa
a070
a805
a90c
aefa
a5c3
b9fd
ba22
cefb
d232
dea6
d9d8
d6d1
e671
e9df
efe1
f220
f6e2
f6a9
f921
f796
31cb
31a7
3118
699f
69fc
2064
20ef
20bf
20eb
54d1
6501
2842
045f
04a5
3211
0d68
0d26
2f94
3a55
2554
679d
6789
2040
033f
0390
039f
2e18
6121
6122
50f3
dbe8
dbc3
dbd7
acac
acf2
30e6
3828
113f
44a1
44a7
4128
cd59
cd8f
cd15
cdd7
cdd6
234c
02b0
2cdb
6e1e
1228
2a35
2a84
643a
b4db
b48f
087c
0818
084d
1378
4a02
240f
0f9e
0fdd
2d63
2d8d
3dce
c829
33e5
6f2c
ed6f
eda4
edf2
ed13
73f5
b1b4
51ce
5196
147c
58dc
58c6
6dba
6d39
6dab
1d03
1ddb
21c2
5f85
d199
d136
d15e
8dad
8d9f
8170
816d
8110
c154
e130
e10f
e18a
e112
d4eb
d4d7
5dce
5dd0
5dda
bd6f
dd74
9daa
9df7
7d07
d855
d886
fdc8
fd27
a472
8401
e46c
e4c7
e485
f463
f434
f4ef
1f04
c4e6
9803
985a
a866
a886
a811
8834
88a4
cf9b
cf0e
afb4
afce
bbf4
bf76
9f03
9f64
7f27
7f0c
df20
36ec
ccbe
5a23
5ab7
6bf4
d098
d0c4
7e0b
499a
de90
ce23
ce3f
ce90
ba08
0c60
0c7b
9a63
8a7a
faea
7a35
5e59
ae94
ae7c
79c0
b0c1
dc76
d531
60ff
60c6
5b01
5b74
5b9d
c09c
a05a
2b97
fc0a
fc90
fc93
9bac
9bff
fb91
cb78
b92a
3b20
3bd4
8b54
8b92
8b7e
1b30
5c76
5c3e
b535
95ba
9591
7c78
ec2d
8572
15e4
159e
a938
e901
f97f
f9e4
9354
9371
8367
b33a
17bd
a230
f271
96a1
977f
f73a
f767
e7c2
d0ab
6f40
665e
e84d
d911
d919
d2d5
ae1b
cffb
bff9
cad2
6c17
a69d
dc82
1add
60ac
d0be
d5d0
6ff3
9a1d
d741
d742
7c8c
37f4
37fc
f5d0
b315
6c85
b08d
52c3
1f17
1718
cb11
fc15
431d
8a86
aa88
c587
c3d7
1b1a
1b15
e581
33d7
b2e5
272b
4acf
3306
5c55
1651
c74b
7bb9
f2c1
92e9
f54c
f54f
5ba5
7285
10bc
9f4e
fce6
0640
cba7
fd43
fd41
1cce
9d49
8355
1c43
b308
7e4d
7e4e
875e
f5a6
06e2
0604
06a9
0e0c
298d
29e6
360e
3b26
350f
3be3
4708
5ef6
5cf2
6ea6
66b0
6606
7625
76e7
76b7
76da
7bf0
7cf8
8ea8
862a
86ef
8ed7
8ec2
8928
8eb7
8ae5
962c
92a3
99b3
97b5
9aab
a734
a6a7
a6c7
a73e
a983
afe6
a57c
a539
b615
b622
b739
bed5
b6d2
be06
c937
cecf
c6d7
c9b8
cfe3
d627
dc0f
eed7
e6b8
e6a6
eb05
fc04
fef0
f7a5
fbe5
fc0e
3121
697e
69d0
6905
65fe
65b1
2862
288e
0a8f
049e
32ef
32c6
0dfb
2f99
2f8e
3a67
253f
2598
257d
25cf
2552
25c3
67cb
67e3
036d
03c6
03d3
03e7
2ebe
612f
61a1
482f
18bd
183d
18c9
633f
6386
74cf
74ae
507b
db38
ac30
ac78
ac9a
da3e
daaf
30e3
4b09
114a
457f
757f
44da
41fe
cd99
cd11
34c2
34e6
345e
23e4
0228
021d
2cf2
70e7
2abf
648d
b497
b41f
b44f
08a4
0852
0887
08d9
807a
80e6
4a2c
4a83
35ef
0f3d
2d89
3d3a
68d2
68d8
c823
c86c
c8aa
c822
6fc6
edd2
73e9
b1ec
b1a7
51d5
f1d2
581d
6db1
1d62
2109
7181
5fdb
d170
d1f8
8d23
810b
8139
a1e8
e13a
e19c
e1d6
d49c
d476
d407
bdac
bdfd
dd25
ddb4
dd73
9d77
7d23
7d6a
fdd4
fd38
fd98
a46c
a4e5
84e6
8429
943d
945a
e432
e407
f4d4
f4fc
1fac
c4ac
b8f9
a8d8
f8db
f8a6
8829
cf3f
cfb5
e8f9
3968
bbb4
bf36
9f67
9fc8
9fb3
7f2d
7f3d
8f09
36c5
1682
cc3b
cc9c
eaba
ea55
09de
096d
5a6c
5aba
6a9f
6a5a
6a05
629c
6be8
5994
7b23
49fe
49ce
cef5
ce94
ce36
ba2c
fa62
fa2d
fa60
997a
197b
5ee2
be5f
6601
fe31
eeed
ee38
ee36
9ee8
d5f1
d528
9066
f0e8
a09f
40f5
eb84
fbc0
cb24
3b3a
3bc5
0b30
0bb4
0bce
5c98
8cb8
9cc5
9ced
3c9f
153a
e520
e5b1
d924
2993
2979
a970
a934
a97e
f5a1
c9ed
c92a
a3c2
9394
c3f4
f372
a2be
9266
c261
2006
b2b8
d7ea
a769
a7cc
97e4
27b4
c762
c76f
5540
d0ad
d0af
d6c5
435f
0716
500b
bc82
b141
b84d
2adb
a017
591a
d21d
aff1
bff1
f034
b010
6211
531a
b2f3
3711
c692
74b6
9ff6
d088
fc51
fc5f
375b
d25b
2b19
7317
f2f9
52f6
37f9
bcdc
40a0
cde1
52c0
d2cc
1f19
c005
9316
eb8b
eb89
6082
b242
f517
2acf
c689
0c1c
865e
f65e
4ac2
0e4e
8783
b689
bce2
cc57
6a85
b659
c2d9
ecdc
87f7
9740
5f55
978a
9a89
e3b7
8b43
f541
1f5e
77df
ea89
164d
fccf
dceb
478f
b645
a75b
bba5
5d45
5e4e
e64a
ef5b
1ba9
6309
630e
bf5f
0ccc
9552
e35f
f3fd
15a7
e5f7
0c26
07e5
175f
2926
29eb
2921
27ae
361a
3ec3
3905
36cc
3b59
36d6
3cf2
59a4
5b0f
52ae
66a0
7939
7902
76aa
720b
7928
8ec0
86d9
820e
89da
82af
87e6
8502
9637
9226
9b02
95eb
a627
afe2
a633
aec1
ae0c
a7aa
b61b
b606
b6a0
bc28
bfef
b57b
b5b9
b5c3
c6d8
c927
ceeb
c3ee
ca0c
dfe2
d618
d902
dcb7
e902
e702
e907
ecfa
e7e9
ecf0
f7a0
faa6
692f
207a
54a5
0a83
04ce
0492
04d6
2fdf
3a81
3a42
256c
67cc
67fb
671c
03e8
2eda
619c
18f4
1840
63ba
63e4
74ee
748b
dbbd
ac82
da3c
3081
38b0
388c
4b21
4b06
110c
4feb
4f88
75f3
cd7a
cdb3
cdf9
342f
34a8
232c
2339
2381
23da
2cce
12bc
124c
70fb
5712
2a7a
647b
64f7
641c
b4e2
b45b
10e4
10e7
46cc
46a1
08ac
0873
1354
136a
13f0
13fa
300f
4abd
4a22
4aeb
35cd
353e
35a3
2454
245e
2486
24d5
0f3f
0fae
0fc3
0fc6
2d75
2d96
3dcf
68a4
c868
edb0
ad1d
adf2
b1ff
58bc
5886
6ddc
1d64
3fd9
2135
715b
d1bf
d106
8d20
8ddf
8d13
917a
91a7
91d8
911a
81fe
c190
c181
a1c0
e132
e196
ef24
d4cb
bdb2
78f7
dd65
dddf
dd18
9d0d
9d78
9ddf
7df3
d829
d8a7
fd9e
a455
a49d
840b
8433
848a
84a3
84d7
94ad
946f
e423
e49e
f40a
1f31
1f0a
1f0d
b878
b898
98d7
a85b
8865
e897
af94
afc0
afc4
bfa1
9f14
9fa5
7f0b
8f9d
dfd5
723a
72de
1c0d
1c3f
1cb0
eae5
4e9e
0924
5560
6a5b
6b93
d07d
d0e1
59ac
de91
cebd
ce38
cebc
baea
ba24
aa6e
9a5a
8a5f
8a0f
8a5b
fa0a
99b4
1a34
ca4b
1991
0e24
0e9e
5e34
5ebc
be95
be93
ae37
662f
ab64
abf1
fe63
ee20
439a
3ebc
60ec
6027
5b69
5b7d
5be1
906c
90e2
c093
a02f
a0fe
2bde
2b6c
fc79
9b9e
fbd4
fbc2
fb84
cb0b
cb67
e055
5cde
5c33
95f5
7c7b
9c3d
3c92
070d
07ba
079b
e52a
e534
8966
897e
a975
f5b1
f591
f590
f5c1
c9e4
f9f1
8373
470a
e37e
173a
827f
9274
9793
2768
e770
c763
c773
066f
475d
d6f3
b84f
6690
24bf
d004
a510
d2d3
46f8
769f
c037
4018
4013
0698
0e19
a0df
b699
9ad7
f043
0b12
9ac3
9f15
d54d
effc
d743
b0b4
d725
8adb
a210
e382
0657
8c1b
8b1f
928f
5bba
d7da
4912
70a5
a7f1
ebbc
50ae
3c18
8c85
b285
33db
92c1
9b8b
9655
9bb6
82e1
391d
c316
5b8c
fa82
6de8
bb8f
e3b1
8bb0
62c6
e3d2
f786
f94c
fde3
37d7
b749
af41
9a49
d941
855f
b359
7b4e
0b89
0f4f
1b46
9b49
df44
3e43
7e46
fe4c
d5a5
eb40
a5a8
53f0
e5a3
e5fc
55a0
0ea8
06a7
0b5a
0cf9
1ed1
1527
29d1
3fff
39a9
393c
39ef
39a7
46e2
4ec6
42aa
5e89
5e81
5caa
52b7
5aa3
5c0e
53e6
6c04
6ecb
63a5
6805
650b
6bf9
6ab7
761d
7ea1
76ab
76a9
7c29
7caf
8eae
8988
8507
8cfa
853c
9808
96a5
9ef2
a80d
a63b
a6b6
a509
afe5
b702
b7b6
b7be
bc05
cb26
c660
c9bc
cb07
c2b3
c53c
cab3
de29
d98e
dc06
e804
e3a6
eed9
eb08
e3a3
ebe5
ecf2
f635
f98d
fafb
fab9
f3ee
695e
69a6
20e7
540e
65a8
0ab2
048b
0442
321e
2f0c
3a64
3a73
3a84
3aa8
3a8e
6796
03eb
61f4
6194
6117
61c6
4882
6301
63f5
50bf
50c6
db62
db8f
ac0f
30e5
11eb
4fc5
445f
cdd9
cd06
34c3
2344
022d
2cb8
2c08
2cc6
2cfa
6e8b
1263
12b5
57ee
2a03
2a1a
2a07
64ef
b47b
b479
089e
089f
089b
087a
80e1
80f3
808f
135e
4aec
4a0f
24de
2455
2451
0faf
2d7b
68e4
68b6
c85d
c839
33c0
337c
ad0a
b1d3
51e2
583f
58d9
3f83
717e
715e
5f35
5fce
5fb0
d19c
d1ab
8d2c
8d76
9129
911b
81cc
8189
81fc
81f9
a1a1
e128
e1f3
d423
d435
d481
d485
d41b
5d72
5dad
5d7f
5d3b
bdf3
78ea
78c7
78d2
ddb3
dd16
7d21
d89f
d8bc
a473
a453
e4af
e442
f4ed
f421
1faa
a8c9
f864
f8d0
88ac
cf0b
e8c5
e83b
e884
e8e1
af4b
afae
bfde
bf23
bfbc
bf87
9f2e
3603
cc4b
1c66
ea33
ea3f
4eb8
09b4
09bd
6c90
6c3e
d029
7eff
7e3b
5903
59b4
597b
deef
ce62
cede
0c64
0cb0
aa9a
9a0d
8a0d
8aad
fa73
99b1
0e91
5ee8
be3c
ae66
ae9d
ae59
ab74
fe61
fef5
ee58
9ee2
79cc
3ef4
3e91
3e76
dcb0
d5ff
d56d
5b2e
905e
c0fe
c0f4
a052
9b9c
fb23
cb69
a538
3b2d
1b54
1be4
bcc5
8c4b
8c69
8c3e
9572
9cea
8595
15c0
0760
e5f5
890b
299e
f5c4
f5e2
c9cf
f93f
f9c4
f3ce
82b8
22b8
92b1
927d
c296
a7c1
b7cf
970d
276e
8795
d78c
d675
c6ea
c664
669f
884f
d7f9
8149
46ff
bf10
6a18
ae15
0694
e01b
6b1c
affc
bffa
8691
869e
f030
36f9
36fe
5e19
803c
a033
7218
22fe
64ba
34ba
9e11
4712
5a11
2318
ab83
c716
cde7
fc16
abb9
ba19
f519
2683
e512
90a6
8312
cf46
9de2
aa87
f316
851b
62e9
10a7
92c8
8c58
4283
a7d3
82e2
934c
2749
7bd1
ae4c
074b
17f6
8cdd
7bbf
bb49
9f5c
6bb5
5b44
1742
728f
f787
ba41
42c7
af55
af59
558f
e55e
a752
55d3
dccc
e645
ece9
9e40
ea46
ed4f
df49
7f58
0ba6
73f1
395b
a0f0
40f6
0c04
03a4
07b9
1e0c
1508
180e
17b7
2be5
3ea5
3987
3cb3
4789
49d2
42af
47e2
5eaf
5b22
59d5
5fe6
5ca6
667b
6ed5
6be9
73a8
72af
7fe0
77b7
863b
89eb
97e2
92ab
9e8f
9cfc
a9e5
ab08
a2b6
b3c9
c9e2
ceda
c928
c7e0
c578
caf2
c57a
c57c
d6a6
dfe6
eb4b
e9ee
ebe2
ecfb
e537
f7af
fc24
f6d6
fef3
31ab
69d4
69b5
69a5
54f4
548c
6503
6521
65eb
0acc
0aa0
0a07
2f2d
2fdb
2f85
2f11
3a71
3a58
255d
2515
25d9
2e7a
2e22
2e19
6182
6189
6111
040b
639e
6387
741e
db9e
db97
dbc7
dba6
030c
acb4
ac09
da22
da8f
3095
307d
30c6
30f9
38ed
38c6
1162
4f2c
457b
4581
44f0
4101
41d4
41e4
cd14
0267
0266
2c97
6e95
6e98
6e5a
6e19
6e88
648e
b4a4
b4d5
b449
0819
0816
809d
80eb
80c3
1390
13da
100b
2431
2438
249a
248b
0fb4
0f09
0f19
2dd5
3daf
3d0c
683e
68fd
c8fd
ed73
ed91
ed3e
ad1b
b158
b11d
517a
6df5
1dcc
21da
21a3
71c5
5fad
5fbf
5f8f
d173
d156
8d12
917f
9155
91c9
9112
81ba
81af
81d0
efdf
d4f4
d43e
5df5
5dd6
bd7b
785f
7887
dd98
dd07
9dd7
d8e2
d8b7
d812
fda5
8478
8427
94a9
e46b
e45c
e43c
e4f9
f472
f4a5
c4a0
b8df
9833
37ea
37b4
a851
a8a0
f83f
f8af
8875
cf2a
cfdb
e8ed
e8a8
3934
bb65
bbde
9fb2
7fec
cc3c
ea9d
093a
090a
5a0a
cce0
ade5
552d
6cc5
62b4
6b0a
6bad
d02f
59a1
e6ad
ce9e
0c7a
aa30
aa3b
aa7d
8a68
fa98
1a75
1a71
1ae1
1a99
1a3e
ca65
ab70
fe92
9e28
9e59
1e56
8e5a
b0c7
dc37
d5b8
6067
605a
5b30
5b99
f091
f07a
2be4
406b
fcbf
ebad
eb64
9bd4
fb2c
fbe1
cb95
a5c8
a56a
3b69
8b6c
8b9b
bc61
bced
bc35
bc98
5cea
5ca4
c590
8cad
8c3f
ec7b
0795
d971
29c2
c331
c32d
c3f5
c3cf
f332
8214
8296
c268
d7ac
87a1
7b1d
2143
265d
bc85
d03f
365d
b841
b84c
669a
8846
884e
f846
d00a
1316
4017
66f0
bc1b
56f9
b033
6b11
aff9
f032
02f4
668e
3710
34b2
c69c
7e16
ccd8
d25c
2b11
4717
eff5
231f
06f4
c21d
921f
8713
7684
1715
02d7
b24c
f385
868c
fa15
8b85
9ded
ca8e
3b13
b28b
1deb
a4b5
e7fa
2282
4288
9b8c
b341
2bd2
dac2
f256
f25e
8782
82e3
a65e
eb1c
ede6
9cdd
6baf
9781
9a88
9a8c
bb83
ce42
1f5a
5baa
1f4d
1d44
f55e
fce8
a755
5d49
fd44
1c46
9e49
1b4e
c55a
a5f3
733e
733f
93f9
f307
73fd
5339
9958
9338
09da
03a6
0b29
07ee
07a6
26d3
273c
273e
2b27
39c3
3328
4904
4928
4ef3
5ea5
59a6
59a5
7ecd
8602
8902
8b59
87eb
87e9
8539
9edf
9ed2
99d6
9c22
aec4
a6d0
bb4b
bec5
b6aa
b509
b50b
b7e2
c206
cec3
c9c6
cbf6
c7c3
d626
d726
d776
d7e7
d7bf
dfe7
e637
eb0e
feaf
f6e9
fbe2
f7a6
fcab
fcb9
310b
31eb
31a0
69da
20bc
542e
5488
65e4
65f1
0a68
32b1
32e6
0daa
2fcb
2fc9
3abc
67c1
2ef3
4889
48e5
1888
18b6
6360
50c3
db5a
dbf7
ac6c
ac36
acf6
da63
da85
38da
1173
1151
11d6
4ffe
4f07
45d1
44fe
44c9
413a
34aa
2332
23bd
2355
23d1
0225
0246
2c0d
2cfe
2c2b
2c29
2c1a
2c4c
707d
5701
64cc
6484
64fb
6416
b4a8
1022
8076
13b8
3590
2463
247d
2481
0f33
6810
c85c
c8ab
33e1
ed19
ad0b
ad0c
77cb
b166
b1c4
b1b8
b1dd
51ae
6ddb
1d98
3f25
21eb
d1c1
8d3d
8d8d
8d02
9170
9181
91f0
81a1
81db
81c3
a1c3
e123
ef61
5dc5
5dbe
5d1c
bd7e
bdfc
dd38
ddf7
9d5b
d84b
d8c2
d8e4
d852
fd94
fd60
a49e
a483
8468
849a
9492
94af
f4fb
1fbe
1f8d
c42e
c4f7
b851
a89d
a89a
a839
a819
88c9
cfb1
cf87
e8b6
e81c
3973
3979
afde
bb7e
df54
168a
729e
1cb1
4e7c
0976
ea1d
6cb5
6bf5
d063
d0f5
7ee4
7e97
ba6e
ba6d
0c98
aa7f
aaa1
9a96
8a77
fa5b
9978
999c
caec
caf4
199f
5e99
aebd
ae5e
abcf
fe30
fe2c
fe5e
799b
437d
537b
b02f
dc6d
6063
60ed
a02e
a0ff
2b70
2bad
2b64
4069
9b23
fb65
fb7c
3b0d
8be4
8be8
956e
7c70
7cbc
3c71
3cbe
3c97
ec0b
15bd
07ce
0793
e575
29cf
c99b
a3f4
937e
8394
e3c1
f3ef
179b
a264
a26d
924b
b70a
97a1
e794
c775
2603
1309
a6ba
595f
214a
503b
d011
a513
4036
814d
a013
d684
a6fc
9692
6f16
0691
6043
600a
6003
6004
a5da
6034
6035
cad7
7ad2
a384
4692
668f
9719
34bd
92d3
7c1d
aa1b
b7fe
82f4
f5dc
57fd
1e16
0683
0689
9312
931f
6087
c7f5
47fa
e65e
f51a
2687
5deb
70a8
3cd5
44b0
8b87
62e8
1de4
33d9
938b
b34e
2bd3
cf5e
e003
9bb1
0e4a
0e43
dde2
8ffe
9c11
7bd0
5b87
f7d0
f7db
b5d6
b78b
ccc9
83db
a2e8
f746
f741
a642
3c5f
e7d5
628c
978c
8b41
5ccc
a544
85db
85d3
0cdb
df5f
5ce3
5ce9
70be
5e45
8d49
b30f
cc4a
8c45
d5a6
7d41
e95f
15fc
061a
0ea9
0e0f
07b2
09ab
0bfa
0b5d
16c1
2ea3
2b51
277a
27ca
36cd
3eaf
362c
33a7
398b
37be
3922
4706
561d
53a4
5ca9
5be7
5e8d
6604
6ed2
650d
767e
7edc
76a5
7989
7b26
7709
798b
7b27
7afb
8506
86dc
8ca8
9666
9633
9be5
9bf7
9cf0
957a
a6e1
a804
abf6
aefc
ab5e
b62a
b9da
b7a9
ba28
baf7
b5c7
b3c6
c637
cec9
c708
ce85
c7e6
c799
defd
ee22
e9a0
ecab
f626
f607
fb5e
20d5
54b8
5016
6586
65f2
0a98
0a82
04c2
0434
04e0
0451
045d
3214
32af
32d0
0d94
0d45
2fa4
3ad6
258b
25b6
67c0
67b5
0383
6101
61c4
488b
48c6
481b
7495
dbc0
db43
0a4d
ac17
da17
dab6
daa6
da45
30b5
30cb
3088
38e4
75ea
75cb
75ae
44c0
448d
44c3
4113
cd8b
233a
23b4
2c23
2cbe
2cda
6e94
129b
6495
b41a
b443
0865
8020
13e1
13dc
4af5
35f4
24da
2412
2d79
169b
3dec
3da5
682f
ed30
adb1
73e5
b198
5125
f17d
585f
1d7b
21de
217f
711f
5f70
5f6d
912c
91ab
9126
815b
c172
c131
c1b5
d4f5
5d34
5d3e
bdff
ddbd
ddab
ddd7
7d3b
7dc4
d8ea
d8b0
d822
d8e3
fd07
a4a5
a4da
a4d9
84e4
84dc
94c4
9497
9415
e479
f46f
f484
1f30
1f4b
1f88
1fd2
c48e
b861
b8c4
b8eb
b8c9
b88f
37de
a82d
a88f
f8ea
f82d
886f
e871
e815
af74
af02
bf32
bf39
9f9e
9fbe
7f01
7fc2
8fb9
df35
dfb8
1cba
4e5f
6201
6bc8
6b98
6bca
d069
d073
d0c7
d2de
ce3b
ce51
ba2f
ba23
ba9c
9a99
8a3a
8aa1
fa9d
990b
9971
7aea
7a7c
1a5c
193a
196f
ab23
53c5
8e60
8e39
d5be
5bde
f0ea
c0f1
2b93
406f
4027
fc30
cbe8
b962
b93b
a598
a5f1
a5b8
3b97
1b3f
5c6f
5c32
5c6b
b501
8c90
95be
7c91
ec20
85e4
859d
1567
3bb6
8901
d903
d99d
2924
f530
f595
c931
c968
e957
e93b
9375
839d
760b
f39d
a2de
a2b0
922d
c223
b24b
97ac
976a
f76d
e7ce
4240
d78f
2018
d6ad
860a
f14d
bc81
d031
d6fd
2ada
76fd
a84a
e142
5f1e
86fc
b037
0695
069f
16fd
5688
6007
c84d
bade
b697
b696
9ad8
cac1
cac9
a03f
d65c
72f0
34b6
80a0
3e1c
b6f9
4710
d74d
0c8d
7386
52f8
c216
94be
57f2
6c8a
871a
40ae
b082
0651
8c19
a918
1e1f
ca1d
c2f7
d7df
0686
abb0
4009
e519
4389
8b8c
50ad
50a3
ca85
824a
2bbf
2788
b387
02ed
1bba
17da
f91f
2740
f0b1
c313
5b8d
5cda
a658
60bf
83d6
cc56
8bd6
c2d0
f2c9
92e0
f71d
174e
42f9
5ba0
73df
1d42
8ce6
1cd0
7baa
dce6
5ceb
d944
70b1
7a43
b307
ea41
8e4c
d751
875a
8955
a958
95fc
##vj1
0ea5
06eb
0ca7
1cf6
2726
2997
27bc
27b0
27e8
3e07
3edc
36dd
3eb6
4610
4804
498f
5cb3
6ea1
6a28
6aa9
7c26
7209
7c0e
89b5
9789
99e9
96a0
9e85
99af
9953
9a2b
9579
a80e
ae86
a2a0
a22b
b735
b61a
b234
bedc
b9e5
b9ca
baa3
cec0
c6e3
c9c9
c3e7
d67e
d5cb
e805
e9ef
e5c3
fea5
fea8
f6ed
f9dd
f3a1
f922
31f7
31c7
69ba
69f2
2025
2023
20fd
54a4
65cf
655e
65d9
2863
28b9
0a64
0a73
0ae7
0438
049d
3287
0de0
2fcd
2f52
2f26
2f88
2f86
2fd7
3a93
257a
678c
2e58
2e9b
2ee9
61be
48d9
6390
63ef
db31
db6b
030b
0a4c
aca1
acdb
ac41
303b
daa1
dae2
30b8
387d
11b3
4f1a
45b4
4483
cd97
cdf7
cdf8
cdfd
347e
341d
0230
6e9e
2a58
2a5b
2a12
64c8
b491
b444
104a
0872
08c5
8074
1398
135a
300a
4a29
35c9
241c
0f04
1692
3dbd
3dc8
6884
68b8
68c9
c8dc
c883
c888
ed56
ed07
73c2
b15b
b1ab
51eb
5119
511d
58bf
58e5
5818
1d30
3f23
3fb9
7106
5fec
5fc4
5fda
d1d9
d1f6
8d98
8131
8169
81b9
c10b
ef99
ef36
d402
5d24
5dc0
bdb8
bd1a
ddd4
9d1b
fdcc
fd58
fda9
a4ad
a433
a415
8461
8490
848d
844f
94ea
9466
f460
f44c
1f74
1f83
1f89
1f0e
c43d
c456
b868
b891
b8f1
983d
9839
a862
a824
a8f4
f86a
882a
883e
cf8d
e87f
e853
e8b2
e8e3
af3f
bb3c
7f73
7f38
8f8e
cc7f
cc6c
ea66
eaeb
ea07
5a2a
5a5e
ea10
6a3b
d09e
d07c
7e5b
59cc
7b61
7b95
de6a
de56
ba94
ba59
ba36
0c6d
aa66
fa14
fa51
fa59
996d
7a33
7aa4
ca3b
0ee4
0e9d
5e20
beb4
ae5c
abe1
fe0a
fe62
fe78
9e6e
1e55
7995
3e25
b0e0
dcec
dc91
dc3e
d52d
d557
d59d
60e8
5b2c
5b7f
5b97
90ce
f093
f0e7
c0ef
fc9d
eb38
9b74
9b2a
3bf1
1b99
5cba
95b5
ec6f
8535
a90a
f554
c920
e992
a39b
8366
a26e
2254
22ec
2295
c2b1
d7ff
a775
973a
879c
e77f
c7c1
4540
c662
294a
5003
12d8
d0d9
d145
d6fb
d6f9
6014
601f
d68a
66fa
56fa
77f3
16fc
a381
62db
cac6
6c1c
cc12
34bf
d2f3
a718
2695
9e1f
12eb
7313
b7fa
1915
82f1
57f8
9218
9286
1e10
cde0
1f1d
5bb8
5bb6
7ff7
608a
f387
b3d8
e51b
2ac4
5ded
5ffd
ebbe
8a8c
9deb
ca8d
ba85
aa86
a31f
228a
fcd0
965e
c2c2
5b86
e5dc
fbbe
3c58
47d6
92e7
c54c
fbd7
1f56
a78c
8ce1
fba7
a08a
e78f
5cef
fce4
1ceb
b35b
ec4d
1b4a
bf5d
c30d
7f4d
1e4d
a5a6
895d
60f9
95a8
933e
19fc
1fe5
1b02
2eae
29ab
2607
27b6
320b
37e7
3cb9
4624
49a5
5ed2
5928
5ef3
6505
6c21
7614
76ef
7ea0
7e8c
7ca8
8fe2
8639
83aa
87ab
8c21
8522
8a0e
96ca
9b56
9fe5
9aaa
a61d
a6ed
a996
aef6
a50d
a222
b806
bc24
c6a3
c997
c9b6
c507
ced1
d505
d7c7
eea8
eed4
e7a3
e9b3
ebf3
f671
f67c
f6d7
f6bf
fed5
f9da
fc22
##Ok
6924
693e
693c
20fe
2079
208a
54e2
54c7
65de
2849
0a3f
325e
32c7
0df3
2f9a
2fe2
3ad7
3ae9
2597
675c
67af
0362
2e39
2e49
2e05
618d
61f9
4898
18f6
632c
6328
63db
50b2
ac08
30fb
38ca
4b1a
110d
11cc
1176
118b
1183
452b
cd65
cd73
cd5c
cd5d
cd17
cd1f
345d
6eb2
12ad
64cf
64aa
64c7
b471
b4fb
1065
10c8
10cf
1083
083d
80f7
13c7
3003
4a1a
2472
246a
24e6
24dc
2dd3
c801
c8dd
6f8d
ed34
ed82
eda3
73e2
b1a9
51d6
142f
6dca
6d8a
1d6b
1da5
7192
71b2
5fd4
5f76
d163
d171
d15c
8d4b
8da3
919c
9137
819b
a1e2
e15c
ef6a
d47f
d426
d4f0
5d51
bd02
782b
9db4
9d60
d863
fdb9
fd8e
fd1c
a40d
a42d
a4c2
a4d7
846d
943a
9467
940f
9406
e49b
e422
1fb6
c45a
c443
b825
b89f
986a
9899
9886
37cf
a83d
a885
f8b7
8831
887c
88ae
e890
e8c1
e85e
e8d1
39ac
af6b
bbc0
9fa1
9f60
9f7d
9fa4
7f4b
7f8b
8f03
8fa8
df3d
df83
cc7a
eae4
5a65
5af5
5ab6
62c5
6290
6b0b
6b3c
d067
7e9b
592d
7b84
d277
49ea
ce5e
ba31
ba35
0c95
0c7c
fa03
1931
19b4
5e3d
bef1
be51
ab6f
abf4
fe64
fe76
fe3c
ee60
eee1
9e95
9e96
539f
b0cc
16ac
6054
602f
f05b
c07d
a068
fcb4
fc34
fc95
fc3b
9b34
a565
a591
a5ee
3b73
3b9c
1bef
e0cc
5c75
5cf5
b569
b557
c532
8cea
8cfe
8c6d
959c
9cba
3cba
1598
07bd
e5bc
3bb3
892e
8973
8992
89c1
293a
29f5
f534
e954
e990
4298
932c
c330
c334
b3f5
b394
e392
f325
1775
179d
8231
2279
9292
b27e
d7c2
2775
276f
27c2
c77f
a661
f631
f62e
f66f
495d
2144
2145
103e
cf19
60da
5f18
5c82
6b1d
badb
90de
90d2
a383
cac3
721b
e691
c25a
a745
72f2
9e12
74ba
ccda
4715
effd
7c88
40d9
06f9
c51f
8217
821b
bcdd
768a
d2c8
0314
8918
c4b3
e65f
775a
f518
f4b4
c68c
4385
2712
5ffb
8a8b
aa8e
e316
c3d0
1c8a
b286
2bb9
33df
5a86
8c5d
a7d9
9b81
972a
02ee
9bb0
ec87
5c5f
bdee
bf41
ecdd
5b41
bb8e
f549
5ba3
5305
7c5d
8ce0
ba40
4086
9a43
9a4e
e559
a75a
e0b8
dcc6
9ba6
378a
bf5b
8c49
e945
a5fb
b958
9302
194d
d5f9
c3f0
85f7
b5f6
f5a7
e5f6
933c
f333
06a4
09a0
1733
17bc
177d
1327
23a8
26c9
3ec0
39e9
3ec6
3c21
49db
49a0
4203
4222
5ea3
56c7
59fb
5907
5fe4
662b
6ea0
623f
7996
7b5c
7cf2
7a28
880f
823b
8caf
857c
99d5
9efc
9be7
932b
aecc
a902
a2aa
a5e3
b909
b807
b7ee
be09
b77c
c9ca
ccfa
ccaf
cab9
dcab
dc07
e636
e9d8
e6d5
e6b3
e609
ebfb
31b0
692b
6988
20e2
54b6
289d
285c
28ca
28a3
2841
0a4b
0ace
0499
32c5
0ddb
0dc6
0d11
2f6b
2f58
2fdd
3a5f
3aa9
3afd
2569
2521
25b9
25a3
6718
0372
0394
03b1
6160
6184
61e7
48d8
183f
63c2
7421
74af
dbe0
da19
da02
3817
4bef
11b6
11e3
4fac
75eb
44ed
44e2
41c5
cd4c
23c9
6e9c
6ebc
707c
2ab2
b49a
b44e
1028
085d
08b6
806f
1393
3009
4a0a
248a
24d9
24f6
0f2a
0fdc
0f07
6fec
6f7f
6f8c
ed5f
eda0
adcc
ad21
512b
f195
6d87
6d16
7189
5f6e
5f84
5fb5
5fc7
d172
d1c0
c188
e169
e1a4
e1d0
e113
ef0b
d42f
5dca
5dc7
bddb
783a
ddf4
9d79
9da8
7d65
7d85
7dd5
d8a8
d8e7
a471
846f
84c9
9484
e42b
1f9a
c470
c484
c4dd
c418
b865
b83a
b863
983f
98d8
88ea
88c2
88d0
cf6c
cfbf
cfdf
e82e
e8bf
e8fa
af78
bb30
bfce
bfa3
9f04
df3e
168e
ccd4
1c60
1ca4
ea9c
6cba
6c99
6ae9
623a
d278
d279
490b
aaf5
aa52
9ab5
8a78
8af1
1af1
1abe
0e20
be61
aef4
ae6a
abca
fe37
79b4
799c
8e01
b04b
b077
b071
d562
d523
6065
5b24
9062
c06d
a0e0
2bac
2bc1
40cf
fc97
eb7f
eb91
b99a
b9c4
0b70
0b98
0b9d
8bad
8b75
8b77
9592
9c7e
3c33
8562
1503
1564
e5c4
d9f1
d9c1
29c1
a901
c9a1
429f
4299
372a
93cc
c367
8363
e3f5
76ba
a293
d760
a7cf
e7ff
e7b1
c7bd
201e
a66c
06ec
866e
12f5
d91e
d7fc
7016
60d6
2adf
76fb
a6fe
8ac1
6f12
b035
b032
0699
8698
96f2
a0d2
a388
700e
a036
4690
cc1a
a243
d589
9033
6313
92f4
9241
924e
e6f2
8f16
d74b
aa1d
2241
c51e
e383
37f1
771b
cde3
e0a0
1f10
a0ac
ec1b
c004
abb1
c382
22e3
f512
431f
9de5
e313
e712
854b
3386
a587
c5db
272e
4ac5
c785
0e4c
f28b
b7d7
7de7
7def
ede0
ede2
7cdb
7cd9
53d1
f2c7
42e1
9745
254b
254f
9a8d
2b81
77d5
c3b6
1f4e
1d4c
158e
a30d
1cd3
9541
1a86
dce3
dce9
9bd6
bba3
c351
7b4f
dc40
8bae
f352
9e43
7a4d
1b4c
1b4f
a352
f64a
c75a
53f3
f952
a337
06ae
0704
07b7
0caf
1734
161d
17a9
2236
2bfd
222b
320c
37c7
4070
461f
43e6
56d1
56d5
59dc
5507
5eeb
6204
6608
775f
7804
76c8
79ca
79be
8204
8e22
8ecf
86a0
820b
8605
8e0e
8ca7
9615
961c
93aa
a6e3
ae22
a623
a6c4
a23f
b6db
b6e2
becb
b7b0
bcfb
b536
c6be
c6d1
c6b2
c921
c526
ca06
d6b7
d62b
dea7
d6ce
d6b6
d605
defa
d579
ee04
e7aa
f61a
f70e
f2a1
31c5
312a
69c4
20c1
54be
6522
65d2
28a8
2837
2829
0a5d
04eb
0dd8
2f8f
2f87
3a23
3a82
0365
03f2
2e9a
2ee7
48c2
489d
1868
63c4
743c
74f6
7440
50b4
507e
dbca
dbdd
ac2e
ac83
da57
da93
daf7
1125
11cb
11fb
4fb0
45b8
75b8
75a7
4425
44f1
41a3
3401
34c4
34e7
0271
2c9b
2ceb
1284
1288
2a3e
2aab
b465
b49b
460a
46a8
08e6
3525
2476
2411
0f24
0fa6
0f11
2d20
2daf
169c
3dc4
68c5
6883
68f0
c8ec
c8ad
c86e
c85a
33ce
6f7a
ed2f
ed0f
ed8d
adb7
7303
b1a5
513b
517e
5116
582e
585c
5888
5816
6dcb
1d88
21fa
7160
717c
5f23
5f3c
d113
8d34
8d91
8d22
8df9
91a1
91db
8154
81d4
81cf
81d6
c1a5
c1d7
c11b
e1ad
e1e8
e1db
ef8c
d4aa
5d86
78ca
788b
dd3a
dd6e
dd86
ddd5
9d59
d869
d857
d83e
d826
fdf3
a485
8473
847b
9423
9456
941d
e403
e43e
e497
e4ae
e410
f43b
1f61
c42a
c44e
b884
9866
9871
a833
a889
f83e
882d
afb2
afd6
bb63
bf28
7f23
8f67
7260
cc54
1c70
1c7d
5a9b
adef
7e6d
5998
7b74
d254
de63
ba58
aa5e
8a39
fa9a
9974
7a75
1a73
1aa4
ca66
ca71
0e7b
5e57
beff
be6a
fede
fe9d
fee2
9ede
1eb4
4391
53e0
3e3c
b0c8
b05c
dc94
d5ad
f0c3
2b54
2b84
409b
fb78
cbff
a572
a525
0b25
1bc4
bcea
5cc5
5cbe
9598
7c7d
9c9e
ec03
e56e
3bbc
a957
f5c8
e9c1
c3ec
c32e
833a
47ba
b3f4
8271
827c
a22c
927e
929b
a79b
f7ed
e79f
c795
d62f
b667
2504
1030
b840
cf12
f840
d007
5913
5915
86f0
6b18
568d
a042
795b
0e16
6685
5ac4
dc87
5c1a
d0bf
f01e
80a4
7e11
d08b
c0a5
924f
bac3
07f9
f34d
6cd8
ab88
a91e
de12
3ff1
d2c7
c2fb
42df
7a85
cb19
fc1d
e65a
e657
2ac3
438a
b71f
9dee
72ee
62e2
e719
b2e1
ec5b
b342
c78b
bc58
8ffd
2de6
2dee
bdef
e54a
074f
b656
7cdc
e5da
c72d
a0b0
ecd6
6de9
974e
1741
ebd1
73d7
5f4f
7c45
2ba1
d94c
1ce6
0b49
1ba1
cc44
6302
0cc1
ad4a
e304
e30f
cb45
0ba1
7d49
ef49
8952
d0fa
c5af
f5ae
e0f7
c336
0939
06b0
09a9
0983
09d6
1ec3
1804
19f6
1776
12a1
2602
2776
29d9
27e6
2b05
36e6
37a5
37e6
3bf2
3ee3
3b27
46e8
470c
49b7
473f
4229
5508
5aa6
66ed
66ae
7204
7ea5
770e
79f7
77ab
79b3
89b2
8b5b
9937
96b3
920b
998d
957e
9577
9c02
a624
a606
a9f2
a987
aa21
bea9
b9db
b6c7
bb29
b50e
befa
c6e7
ced9
ced3
c9e3
cb2b
cb52
c7a6
cee7
c2b9
d9ca
d504
e73d
eead
eedb
e9e9
e73b
e3a4
ee0c
e7a5
e7e0
f7aa
fcf8
faae
fafa
f5b7
318d
31e7
69ea
69c1
69aa
6929
5499
54f3
5406
65b5
6585
2839
28f3
0a88
043e
0418
3291
32db
0d56
0d05
2f01
2f7d
2fc1
3a68
3af0
25ba
25b1
677e
03b4
039e
03c7
034a
48fb
7415
74fa
db5f
ac55
ac44
da34
da37
dae3
385b
38ae
38d7
113e
1129
4f96
4ff6
45e6
4586
7525
753e
44d0
41bf
41d2
cd7f
cdc6
cd1a
23c2
2398
2359
232b
2345
0265
2c64
6e1b
1282
708b
573a
641f
10c0
087f
0884
08b7
80e5
4a24
4aba
35a1
359b
24e2
24d7
0f0f
2da8
2d4a
169a
1690
3d8c
3dda
3d18
68b1
68a6
68d6
68e7
681c
ed2b
adb5
adbc
adaf
f1ed
f158
582f
58d1
6d98
21ec
21e2
2105
5fbd
d184
d186
8dfe
91f3
8132
e13f
e1d9
ef94
efdc
5d68
5d84
5d16
bd12
78bd
ddff
dd6a
dd89
9dfe
9dfc
7d01
7db1
7da1
d86d
fd2d
fdf4
fd9d
a458
a421
84ec
842e
8408
944e
e457
e4e2
c4c7
c415
c449
9898
9829
377f
f89c
88e4
cf9c
e8a1
e886
39ff
bb20
bbed
bf69
bfb2
bf26
9f9a
7f69
7f6e
7f3f
8fc8
8f26
8f87
8f85
df0a
df6e
3601
ccc2
cc94
cc91
1c93
ea05
09ea
5a3c
55f4
6a9d
622a
d02b
7b7e
d23a
ce60
0c31
aa65
aa7e
aa99
fa76
7a9f
7a53
1aed
1af4
1ab5
ca2d
1965
5efe
5e6b
be39
ae9e
66b4
ab25
ab9d
feea
fe2e
fe94
eee0
1e36
437c
53cd
8e4b
b07f
b09b
d5b0
160b
6099
90c4
f073
2bea
2b61
2b9d
fc72
ebac
ebc2
9bcf
fb71
fb7a
b924
b9c8
a563
3b70
0b01
0b71
8b9a
1b9e
bc30
bc67
bc6c
b531
c5ad
c523
9c6d
0772
07a1
e592
89ff
d993
2991
299b
2976
e90a
e962
e96b
52b4
83b4
b320
b373
76ac
82ea
8263
8224
f22f
c294
97ff
d0a1
c603
c66f
f601
f620
f668
2506
12d0
625f
d84c
6016
9841
d24e
46fd
f6f6
f6f1
80d3
d4b1
6a1f
9697
66f5
86f8
56f8
56ff
cff7
77f4
5685
aff3
f038
6682
5aca
5ac1
f0d2
b008
0b1c
d2f4
6311
1ff1
c6f8
9910
32fa
32fb
dff7
dffd
dff1
94b1
7781
e0a7
1f1f
c2f0
031e
22ee
2710
7a1a
aac1
c2e6
e585
8386
8382
e7f0
ec56
22c3
3307
f916
b7db
b7df
c2c4
1659
c315
83df
cc5d
1b83
f68f
87fe
6bb0
5b43
6281
ce43
c3bd
e78b
1586
7cc6
c082
5f4e
230a
a757
5d4d
8f43
9d4e
df4a
955e
0c4c
a3fc
cb4a
1a42
83f9
d95d
2951
a0fc
55fa
9335
0666
0638
098f
167d
1c27
1e86
1cf3
2618
23aa
2604
2b08
36cf
3be2
4ea5
47e8
562a
56e8
580a
6ec5
6807
6209
79bf
73ab
7ca3
7aa3
8625
8666
8ea1
880e
8e0f
850e
8ca5
9ea3
96e6
9238
973c
9ed4
99aa
95b3
9527
a9d3
a90e
aee5
a98b
b753
bb51
b7e5
b7c6
c6b7
c9db
cb5e
c57d
dcf7
d67b
decf
d617
d9e3
d7e6
de8c
e736
eec9
eca6
f3a8
f3aa
fe8a
f6c3
f50b
faf0
f597
f5b3
690d
2021
2088
20d3
65a7
283a
288f
2887
0a79
0a18
0435
2f25
0396
2eff
483e
188c
184e
635d
7411
dbec
ac99
acb7
da62
da0c
30f7
1113
4f01
4f3b
4fce
4ff2
45e0
75f4
41b2
41ae
41d8
cd9f
cd26
2393
0243
2c2e
2cc2
2c3b
2a85
2a1c
640b
64fe
6488
b47f
b43f
b4d8
1068
105d
1041
083a
0896
0826
8094
80c1
80e8
247e
2437
0f6b
2d90
3d1d
685c
68a0
c8f1
c8fa
c813
6fb0
6f3e
ed22
ad2a
779d
58f1
1d65
1da9
3fed
3fbd
3f0c
d1ea
8df4
91de
91ba
9118
812d
a1f4
a17d
e131
e1f5
d403
d4c4
d4e0
d4dc
5d66
bd61
bd67
78a1
9d2e
9d55
9dc1
9d8f
7d25
7d3d
7ddf
d87b
d8d5
84e3
8418
94f1
e4ea
e4fb
e41b
f474
1f35
1fc7
c4ad
c46c
c49d
3794
a8de
f83c
f88f
88ad
8851
cf28
cf04
cf36
cf09
cf06
e854
e895
af32
bf2f
8f3b
dfa9
df8e
0933
0960
5a2f
6a5f
6b60
6b7e
d05b
7e78
7e7e
59bd
d29f
de23
de60
ce70
ce67
ce58
0cc5
0cb2
aa3f
aa84
9a2f
8a2f
8a38
1a9a
192d
5eb1
9e74
4325
53f5
537a
8ef1
dc78
dcb1
d5b5
606c
902e
90e9
f02f
c07c
a0c2
2b94
2be1
40e6
fc61
fc6b
eb24
9bb4
9b9f
fb0d
cb38
b931
b969
a5be
0b69
0b75
0bfe
8b60
8b93
1b76
e0eb
5c9b
5c39
b5a4
c5f1
8cbf
7c0d
7cc5
7c76
3c60
3cb8
1520
89c5
896e
d954
d966
29b4
29a1
a9fe
f59d
a32a
a396
c39e
b39b
b3cf
e36e
f36a
f37c
822d
a214
a298
2201
22de
b294
d754
d7c8
a7ed
b768
e79d
e79b
263a
b0d4
e049
76f0
134f
c035
56f6
0696
ce11
82dd
cad0
5e13
5318
6c1e
22fd
6aca
a241
1ad1
60ad
d586
c25d
0b13
d0b4
72f8
9e19
27f2
92d6
62fb
471b
a21f
e386
52d9
2918
b51a
df17
3ffe
1c1f
c2fd
9319
6088
608f
82ca
3c86
ba1b
268d
e518
2aca
3687
f24a
8349
84bc
52e2
c3dd
5729
f212
2784
854a
f65d
f651
b2ee
9b85
9b89
c5d5
2bd9
925f
17db
b5d0
cc5c
b652
8cdf
72cc
c721
43bc
fa83
92ef
628d
c7d3
1f51
95dc
7286
7c5b
33b0
e3d7
e3d8
f949
9542
fdee
c65f
7cc3
fcc8
dce0
0646
154e
e551
a944
ec49
ea4c
ed4e
e307
93f1
d5fd
895c
7ce5
b3fa
d0fc
b75a
07a7
09e5
166b
16ee
1c26
1234
1623
17aa
26b0
23a5
26d2
36d8
360c
39e1
350e
39d1
3fe9
357a
4ed0
4796
5e22
5b5e
6070
750e
7cf9
863d
8904
880c
87e1
89e0
8bfb
8329
82b3
96e5
9505
9a29
9af6
95e9
a75f
a232
aeb9
a3e9
b67c
bec1
bec2
b80e
bbf7
bb5d
b522
ba0c
c9d7
ce0c
cbe3
c329
c3e6
d6e0
dc21
dc0e
e679
e6a4
e6b5
ebee
eaf7
fe22
f6e8
f908
f9f7
fed2
fb56
f7c7
f576
311a
695f
69c7
2097
32d4
0d7c
2f6a
2f93
2f5a
2fee
2fb6
2590
2599
67e2
03ed
03fb
489c
48d5
74d6
db95
daef
3098
3096
0808
11c4
11d3
4fad
4ff5
4f93
4f17
457d
45a4
7589
4194
41e8
41aa
cdcc
cdcb
2394
0287
0241
2c32
2c36
6e5f
70c8
70f7
2a09
2a11
2a4c
640f
6419
64fc
64d9
b4fd
1079
460f
4688
0863
08fe
08a1
08e4
0837
08c7
088f
8043
4ab0
4ae6
4ab7
35dd
2404
2422
2415
0f78
2d65
2d61
2d7e
2d5d
2df6
685e
68d9
c89a
c859
ed6b
eda5
ad3a
ad70
73ea
73c4
b104
51ec
5186
1d54
1dbd
3fa8
3fc3
3f82
2165
5f2e
5f6a
5f29
d103
d1bc
8d84
8ddd
91bf
817c
8104
8116
a15e
a1fd
e1ac
e1bc
e1b7
e1b3
ef0d
ef3b
ef9e
ef06
d473
d484
d44e
5d39
7881
ddc8
dd36
dd5e
dd19
dd10
9dd4
7da7
7ddd
d837
d88f
fd30
fdab
fdd7
a48f
a444
842f
842c
845a
84e2
8482
844d
9493
945c
9402
c401
c439
b858
b817
b885
98b7
3760
379f
a867
a832
a87d
a8d2
f801
f87d
88a8
afed
bb73
bf3a
9f9d
8f2f
8f82
1c90
ea0b
eabf
eaa8
099f
095e
7e56
7b70
7b6e
7be0
d2b1
d271
ce2d
ce55
0c4b
9a64
9af5
9abd
8a9f
faf1
fa9c
bebf
ab96
ee3f
ee66
9e93
790b
8e3b
b084
b09e
dc3c
d52c
60c5
605c
5bfe
5b35
906e
9073
f0fe
a0e2
a026
a0c6
406e
fc74
fb36
b9e4
3bff
8bcf
1be1
e05e
5cb1
8c01
8c61
953a
7cad
9c39
ec77
85bd
1521
07ac
8923
d970
e93f
e914
f932
4214
372c
937c
c363
4798
b301
76d4
f33a
f3cd
1770
a29e
2231
92de
9297
c22a
c292
d7a1
b798
8714
c76e
26ba
7b1c
0c07
595d
503f
735e
d2e8
4adc
66f7
e01e
f699
6036
5e1f
3017
3014
72f6
72fc
269f
8e18
8e16
27f7
3e15
3e1e
9ac8
7c19
471c
eff4
0c83
aa15
1917
c510
ca18
df19
c243
1710
c2fa
5bb7
c007
c00b
7a83
ba11
90a7
90ae
3cdd
271f
30a0
4310
ebb6
7a19
aa8a
1b1d
5725
8385
528c
1a17
cf5f
a3d5
fe15
e34d
dde8
b7da
7bda
80b9
8bdc
fbb5
fbb2
9588
6bbf
5ccf
0782
7307
164c
93b9
a94d
dc4e
9d4d
ef5a
df4c
e944
3ce0
8958
395e
0757
c5a3
85f8
b0fa
90f7
833e
c335
0fff
0ea3
06e8
06d0
070c
161b
167a
1e8f
17a4
17e8
1afd
2ecb
2902
29b2
280a
2981
3ece
3ec7
370e
3b04
40b5
461b
49f0
49ab
423f
43e9
56e6
562b
570f
56ae
66c9
7611
79b0
7a2b
7c08
7a0e
867d
8e26
862b
8504
9610
97a3
957d
afff
aec8
aaf8
b985
bc2b
b576
b596
c6eb
c702
c9b7
c226
cef3
c527
c3e5
cae5
d771
d6cf
d7a7
d6df
d52b
e66a
e62a
e70c
e709
e3a0
f238
f6c8
fe82
fe0e
f5cb
31f5
69bd
69d5
6918
543f
545e
0aee
327e
0d20
0d60
0de1
0df6
0d13
0d40
2f79
2f5d
3a61
25ee
258c
25dd
6704
03ca
2e23
2e64
2ebd
48f2
18e6
50e8
db5c
db8e
dba3
381e
4b0b
116e
4503
75ee
4190
41fd
cd91
cd38
cd79
342a
34d8
0281
02b9
2c9d
2c9f
6e02
2a63
64f5
642b
10f6
08af
8045
139d
4aed
4a7c
247a
2413
0f69
0f9a
3d90
c8fe
6f96
edea
ed10
737f
b1ce
5121
51dd
f1d1
583a
58d7
6d60
6d81
1d20
1d72
1d0f
213a
216c
2191
5fb8
5f9c
5fa0
d1b0
d107
8d3c
8d5e
91b3
81fb
a16a
a18b
a105
ef8a
d42c
5d2c
5d88
78c5
7895
dd13
9d2d
7df4
7d90
7d58
7d04
7d3c
d870
d8ed
fd3c
a413
a410
8420
84a5
e46f
e429
e44f
1fb1
c427
c417
c4c6
b8c8
98b8
a801
f833
f8a4
88cc
cf84
cf8a
cfa5
e85d
af71
af8e
bb2e
bb33
7f6c
df01
df77
df60
1688
ea54
4e7e
096f
7e3d
7b2f
d2b4
e6ec
49f1
ce35
ba5e
9aad
9a59
fa2e
fafe
7ae6
1a72
bebe
aef5
ae91
ab2f
fe20
9ebf
79c5
43d4
b098
b0c6
dcc2
5b94
f078
f09d
a07f
a09e
2b91
2b7c
4073
405b
fc54
fc6f
fca1
9b72
9bf5
fb7b
cb3e
cb96
a5a1
8b3f
e057
e0cd
bc71
c565
8cde
9561
9c20
9c03
3c31
3c35
ecba
8590
0791
3bb5
8967
8976
f557
c97f
e99d
f992
a37f
1922
837f
b39e
829e
b2b4
976c
c7ac
26ec
562f
560a
d60a
a63a
06ad
f6a1
575d
525f
495f
1037
3740
b0d5
60d8
60d1
9049
76f4
e146
a140
6f1d
56fc
affe
aff2
869a
36f2
d28b
b915
22fb
b003
0b10
d5dc
971a
ead4
9acc
9f12
d256
d259
d549
4711
8f11
32f4
c51b
ab8c
8712
a916
2910
ca11
c4ba
b3da
4002
2688
cf44
44b7
b716
f0af
3c15
8c81
72e3
62e7
c2eb
7f1e
97df
8259
272a
17dc
87d3
e08e
f0b2
bbbd
5cd9
ccc7
ccc4
8741
47da
1f55
1f52
ea8a
b728
1f43
27d3
e788
e783
0785
730c
f55b
f944
dc57
954a
bd46
c35a
9cc6
8309
1ba7
9555
7f5f
bc4a
8a40
93f3
d75a
d95f
60f8
c3fa
95fa
067d
0cfd
1625
198a
1e8a
150e
1b0f
2ea8
2806
26ae
2b0e
27c3
3989
39f0
3ed2
39dd
37ae
3fe5
3fe0
467f
498d
59b8
5beb
52a9
5aab
5aa9
5aa7
6ea3
66e8
66c4
62a3
63a3
76ee
7ee5
7bfd
77a6
8679
867c
877d
8cf2
8327
9627
99be
9af0
abe6
a505
ab5d
a576
a5c9
bcf7
b611
b7a0
b5b7
c67b
c617
ced4
cbf0
cca7
cc09
cc0f
d637
dea5
d2a3
e677
eeae
eea1
e9af
ecf9
f9d8
f738
f9be
31bc
69a0
698e
2022
54da
287d
289b
2899
0a3c
04ad
0493
0415
04da
32ec
0d3d
0dc4
0d5b
2fe1
3ac4
3aa5
3ad5
25ff
256d
25ca
2586
6703
678f
0382
2e5a
61ea
63c5
638f
63b3
50e1
50e6
db0b
dbd6
acbd
da28
302c
30b6
11ae
4faa
45cf
45f6
753f
7588
4187
411a
0276
2c0f
6eb6
7089
57eb
2a94
649f
109c
086f
08f8
08fd
80c5
8075
8099
808a
4a7d
4aa9
4a11
3503
35a4
24c5
24a1
0f32
2d54
2dde
2d10
3d8b
3df8
68a5
68b3
c8b0
c82b
6fcb
adb2
73c0
51c6
14ce
58ec
587e
6dfc
1d66
1d9e
3fc5
3f7d
3f22
71ef
d19d
d139
9189
c16c
c17b
c1f3
c110
c11a
a131
a13e
a18e
e125
e1ce
ef2f
ef4b
efa0
d45e
d48e
5d3a
5d8e
bd7c
dd7f
dd22
9d96
9d17
7d62
fd8c
9482
e4f5
f438
f40c
1f36
b8c6
98e4
9851
981b
a827
a8fb
f888
8887
88fa
cfea
cf6a
e814
e8b0
e85c
3931
bb55
bf03
bf68
bf60
9fa7
dfea
df33
dfc8
df8a
cced
ea93
eae6
4ebf
5af1
cce5
55c8
6c9b
6ae6
62bc
6bea
d072
d09f
7e92
de03
de94
ce33
ce5d
ce3c
0cf1
9a9e
9ab2
8ab0
faee
99ad
9993
7a7e
ca6c
199d
ae63
fe3b
ee2e
9e64
9e32
9e66
8e3d
8eef
b0c2
dc03
dc32
d53b
606a
f065
f0c1
c060
c0e6
fc6e
fc71
eb2d
9bec
9b64
fb74
cb34
0b6d
0b9b
8b24
8b95
8b71
1b7d
e09d
e090
e0c1
5c7a
5c93
b594
b5b5
9570
7c9f
3c3e
ec01
15f4
156d
e569
29de
f5e4
e934
522d
529a
3f5e
a3cc
9390
c375
c373
479e
1754
8275
8223
822c
a269
2264
227e
f29a
c29a
b2de
b772
87ea
879a
c731
2013
0674
b670
0c0e
bc89
d142
12fd
c14f
8144
a846
569b
6a1c
4ad7
6ade
6adc
a0de
700d
621f
b91e
6689
e695
9716
d2f9
a716
7e1a
d71f
af16
738a
991e
f341
c712
52d8
bcd8
b51c
52c8
1259
f386
82ce
8689
f51d
3683
f24d
7a10
ba83
f318
1c86
62e3
a4b0
a4bc
fb81
572d
facb
b2e0
2219
c5dd
c5df
c788
965a
9bbe
22cb
22ce
274a
6b8e
b78f
6ba3
6a8b
e5d1
53d3
791f
43bd
5b4d
9a8b
5ba7
40b1
a78d
a545
c3b5
e3d9
9c45
7302
f94a
0cdf
de41
8582
b35a
9cc9
cba3
f351
dcc8
3b4a
0b45
ad49
aa4d
7f49
93f7
0baf
8758
e5a6
f755
85fb
b5fc
b338
0ecd
1236
13a0
17ef
1cae
17cb
2809
2628
2235
36d9
36a0
36a8
37b5
4ec1
4239
53aa
5905
520a
5e8a
56ca
5c2b
5b2b
5981
6ea5
66b7
6806
63ab
6bc6
623b
6b5e
6ca8
750c
7fe5
7a21
7afc
8b53
8235
86c7
8ef3
8b5f
850f
8aa6
85e3
8cb6
83eb
9eaf
96b0
a986
a6ab
aef0
a3a3
ab0e
a50c
abe9
b66a
b6e3
b20a
bb5b
b23f
bcaf
b3c7
c62d
c61f
c209
c60f
c987
c2a7
cb04
cc21
c922
c7e3
cc08
ca22
d666
d6ed
d9f7
d206
d6a8
d7b5
e6dd
e3ac
eb5f
e322
e53e
f6db
f735
f50d
fb5d
f23b
3115
31b7
31e5
69b3
5484
54f1
54f7
659a
65e9
287a
0a01
0af9
0468
04e5
0441
2f19
3ac8
3ab6
3a05
67f4
0352
2efe
2e86
61b5
6104
48ad
48cf
1821
18c7
18fc
6322
638b
745f
7422
dbbe
acc5
ac46
da90
30b4
38c0
4539
45ab
45f0
755c
44ef
44a9
4410
4122
418c
cd2e
236e
0231
2c26
2cf7
2cdc
6e3a
6efa
2aba
2a93
6498
b498
b47d
b4ab
b4e7
10ea
107c
46d2
0817
807f
1371
139a
4a01
4ae3
4afd
358b
2490
248e
0fb8
2d31
2d93
3dad
3d04
3d13
3d16
c8a3
edfe
edd0
ed18
ad67
73ce
7399
51cd
51c7
518f
58ac
5814
5813
6dd5
a25b
3fac
7186
5f0a
8df7
9108
915b
9188
8164
8183
810c
c158
c1a9
a12d
e12e
ef0a
d41d
d482
d4df
5d55
5d7d
5db5
5dbc
bd01
bd0b
bd5e
dd35
ddc0
9dea
9dc0
7d20
7d56
7d83
d83a
d8b5
d899
d897
d8a6
fdc5
fd02
a464
8457
8477
9475
94ff
9407
e496
1f2a
1f3e
1fd5
c435
b834
9870
98eb
9883
9888
a8f8
f890
8835
88e0
cf95
cfa1
cfd2
e8c2
3925
3967
af72
af23
af35
afd5
9fdd
8fb1
8f7a
bbdd
7284
1cac
5aef
6a08
627d
7ebd
7e9d
7e59
59b1
7b7c
de6e
ba6c
ba5a
0cf4
aa32
9ae0
fa61
fab8
7aeb
1a77
1914
0e6e
0eff
0e9c
5e7f
aeff
ee23
79f4
4395
437a
533a
537d
8e2e
8e62
8e57
8e3f
3e69
b059
dc3a
16ea
5b9b
90e0
f0ee
c024
a0e6
2b3b
40c8
eb61
ebc4
9bde
9bc4
9bef
fb66
b9ad
b975
a5e1
1b68
e024
e022
bcbe
bcb2
b5e6
c5e2
9567
9c3e
3c61
3c39
156e
2954
29cc
f5b4
42ad
529c
5299
a372
a32e
93e1
e365
e377
76bd
f354
1790
a231
a2ac
a223
2263
229e
227c
2276
f295
f221
f293
f2b0
f297
9230
d714
a772
97c8
87de
c79a
c793
262e
d674
a6ec
b665
725f
8007
b0d1
2ad9
a016
d2e4
a14e
d682
769e
f6f9
5f12
401f
d216
a5d9
82d6
b690
6c12
cc1d
5c17
a34a
22f8
60a5
9034
c25f
371a
a71a
8e1b
ead5
3e17
d086
e4b7
0c8e
5516
bacb
369a
c34e
b7f8
6c87
8c1c
291e
7ff0
7ff2
eb8c
7a8e
b24d
82cf
f58f
5de5
a2f8
a7f7
4387
0c10
8512
f21c
7f1d
92cf
a7d1
a7df
9387
2bd6
e00d
e008
fcdd
925d
9c13
1515
8de3
e54b
a2c2
bcef
83d7
1b8d
7cdd
7cd6
874d
73b1
f72c
a0b4
07dd
7bb2
47d7
e7d7
0bd3
b54d
73dd
abd7
a088
15db
15d3
4081
954e
1646
8588
a758
c35d
5e49
bcc4
8cc9
8a44
1a44
fb4f
a5af
f3f3
b3f1
f5aa
b0fd
b33b
09b8
077c
16b7
19e5
160f
13a1
1eb9
153c
26e3
2ece
2660
26a4
29a8
29cb
2bc3
33a8
39d7
360f
39f2
431c
4ea8
4997
420c
47cb
5208
56eb
567e
5705
53a1
5cf8
5ca0
66bf
66b2
650f
72a5
8237
8779
873e
86b8
8805
87c7
8aa9
9636
9ecf
a776
aaa3
aa02
bfe2
b617
b623
b9e2
b997
bc07
c622
ce22
ceca
cbe6
c2b6
caae
caab
d778
d629
de8a
de85
d988
d6a9
de06
d53e
d5e5
eea4
ee29
e6af
ebe7
eeb9
fec9
fe05
feee
31b5
31c9
31d1
69dd
20c0
54a0
652e
0a30
047d
04d0
048c
04a7
04d3
2fc0
2f59
2f56
2f40
67d1
03c0
035f
2e1d
6198
48ea
4824
18cc
18d5
747f
50c1
50e7
dbb4
dba7
ace0
ac85
acfd
8017
da9f
da9b
da15
da4e
30bf
38c8
11c3
4f2e
4f23
45a1
4529
447e
4428
4407
41e7
cd74
34f7
2368
237e
0291
0222
2ccb
2cd3
1294
121d
70e2
2a86
2aa3
2a40
4608
08b9
08d3
8082
13f7
300e
3512
246f
2440
2dc0
2db5
2d8e
3d87
6fc5
ed95
edbf
eda6
739e
b168
b1c6
519a
58f4
5817
6d25
6d2c
6dcc
6d11
1d3f
1d17
3f3f
7109
718f
5f3a
d157
d17e
8d0c
915d
91aa
817f
81a6
c132
c139
c126
e138
d48a
5dec
bd73
bd98
bda8
dd24
9d8e
7d6f
7dc2
7d0c
d892
d89e
d810
fd62
a492
a428
8432
8428
843e
84c6
94c9
e4ac
e424
e47a
f420
f488
c4da
b8ac
b8cf
3790
37c4
8864
cf9f
cfd6
e865
e822
e8b3
e8f0
397b
af68
af83
bbc5
bb57
bf81
9f2c
8f2c
168c
727f
ea08
5a01
5590
55b0
6a7c
6bc1
d020
7b62
8aeb
fab4
fa3f
fab0
990a
99ba
ca6f
cab1
5e56
be6f
abff
ab97
feff
fe90
ee01
eeec
9e6c
9e98
79ac
539d
8e7e
3eb1
b065
d5de
60f5
f06f
f090
f05d
2b21
40e1
fc75
fc7c
eb0d
eb9d
a574
a5ec
a5c2
a5ef
a5b0
3bcc
3b71
0bc5
0bf4
8b6b
1b03
1b14
e091
e09b
bc3e
5c01
5c2e
5cad
5c67
5c3b
b52d
b5cf
c534
c592
c59f
8c0d
7c20
9c54
9c3f
ec67
85a4
89a1
899d
29ad
a972
a954
a976
c9ce
8303
47b1
e36c
8261
a275
f254
f26a
c22f
2004
d7c0
b7bd
2772
87ad
c770
f6ba
250c
12d1
4045
365b
d00e
d00f
d7fe
5ad3
5ad1
9843
a015
569a
c03c
a6f2
5c85
86f2
b039
600d
ce18
c84f
0e11
36f7
02f7
a38b
b691
a03d
30d1
50d5
a245
9037
5b1b
d2f1
2696
269e
9e13
ead2
80ac
6ffb
b4b3
d08c
8f1a
7ac3
7c83
731d
369b
06f2
c517
9b16
8c16
de17
df12
a722
5bb3
eb87
7a8f
400e
a2f2
5ffe
30a9
9def
8c83
1b10
e71b
f218
a316
8388
825c
a7d5
4ace
2bd7
c786
1bb5
8781
dded
17d8
8ff4
2741
6b8d
c2c3
1658
f0b6
ae49
b788
eb1f
17fc
07d7
c0b2
3c56
87f0
978d
c7d6
254a
b545
fbd3
95d2
5cc1
42fe
40bf
908b
078a
0786
078e
c944
dc5f
3de9
fde7
dce4
dcee
478c
7b81
dc4c
55d0
9cc8
964d
b305
cc4e
3e45
1941
e751
9752
55f6
8333
03a8
09a6
0629
09b0
090e
07bf
02a1
19db
16a6
19d3
1e82
1efc
150c
1ef3
1c09
1a22
2624
26d0
27af
27a5
29e7
3610
377e
42ae
4797
5eab
561f
5ec1
580f
59a9
53af
5239
5ee5
5bfd
5c08
5227
661e
6602
6eca
650a
6af6
7e07
76bf
76af
77b5
77a8
7cf0
8208
86a5
893e
8b5c
9b4b
9ead
99f7
9508
99e6
97a0
9b5e
aedf
a909
ae05
aeda
b3aa
b7a7
b9d6
b7b5
b571
baa9
b229
c627
c9a8
c3ae
c80e
c7b8
e9f8
e509
eeeb
e57a
f63c
f6c6
f9b3
fe06
fe8e
faf9
f222
f5c3
69db
207e
54ce
54c4
65f9
2838
0a05
04bf
04b6
3a6f
3ace
3a9b
3a22
252f
2592
03e0
0343
2e67
2e6c
619d
6186
4895
1899
18c6
18d6
63c8
63d3
50ea
acf7
daf8
305a
11de
1138
4f25
4fa9
4f40
45ce
75ec
7587
443a
4429
44df
4124
3490
3412
2370
2c67
2c73
2c12
6e7c
6e04
128f
2a5f
b457
b4e6
b4e3
08e3
80ef
8096
13c0
1351
13fd
4af2
2435
2458
2497
2489
0f39
0f10
2d76
68cf
6896
68d0
68b9
c8d4
c856
6fdc
ed14
ed52
ed85
ad9f
ad06
b120
b1d1
f1a4
582c
58c3
6dc9
1d3a
1dd4
21e4
2182
5fb4
d1e1
d188
d1fd
8dd0
910a
8134
817b
81c4
c19c
c1be
a1d4
ef86
d478
d46b
d455
d41f
d410
bd60
78e1
9d7d
9d51
9d8d
9d8c
9d0c
7d99
d89c
d8db
d8b6
fd84
fd8d
94ce
9490
e490
e426
f45a
c441
c440
b866
9817
379e
a8e0
f8aa
f818
88e2
e8fe
e8cc
e8e5
3995
bbe1
bf3b
9f95
9f21
9fbf
9f76
8f04
8fa0
df8d
df06
cc6b
ccbf
ea36
4e9a
4e96
0993
5a64
ea1c
553f
55e1
55e2
6c03
6c0a
6aaf
6be4
d02d
d026
7b34
7b33
e6b1
de20
de66
ce63
ba74
baef
0c99
aa2e
aafe
9a9d
9a51
9aaf
8aaf
0e96
5e70
5e5f
ae65
ae75
abb4
ab57
fe32
ee71
1e94
1eef
79ed
7990
43de
3e38
b021
166f
5b65
90c2
907b
905d
90cb
90e3
c02d
c0e8
c05c
a0c7
a0e3
2b2e
fcfe
fc36
eb63
b901
b992
8b68
b575
95e1
3c37
1532
0703
892a
f56b
c9b4
a364
a39c
837c
76b4
c297
b260
b79d
2791
87e4
201b
d60b
a603
f6d4
555b
2142
2949
4044
d0d7
601e
e046
c03d
c0d2
5683
6041
02fd
a38f
b019
dc8b
6ac9
27fd
7e10
92fa
dadf
d74c
7ace
bac5
c346
991c
82fa
57f3
eac7
a910
de1d
b515
cb18
4218
c4b1
fa1e
f4b9
491c
f24f
dc19
cf43
3cd9
3cdf
900d
3c1f
d645
02ce
ec52
ec5f
dac7
90b9
b383
8ff8
9c16
b7d0
c2c7
165a
5b85
17fb
c72a
a645
f728
47d5
6def
f2e2
62c7
40bc
a542
fbab
078c
9f4c
7ba4
3ded
df51
1bdc
bd44
cba4
e644
0b88
fd4e
835e
9e42
0f5a
eba4
b55c
8e45
be40
1943
53f1
c5f9
f95d
90fa
55f0
0cf7
0660
0ca9
0fe1
13ad
120f
120a
19be
1bcb
2209
27c9
375f
3324
361b
361f
3ea7
39df
39f3
380a
3fe6
36bc
3fee
3796
4ea4
450b
477b
42a4
5a2b
55cb
53e7
66d3
6afa
7eaa
76cb
7327
7c09
8677
86cb
86ae
8bfc
89b9
82b7
8a07
9220
966b
9734
9906
96dd
96cb
990e
97a9
a3aa
aed6
a706
a2ab
a7c6
bc26
beab
b6e0
b506
bbeb
b7e7
b2ab
b329
b57e
b539
cece
c6e4
c6d5
c996
c6b5
c6df
cbe5
d777
d9c6
dca9
d7a6
d7e9
d539
e737
eb22
eb09
eeb7
f737
fea3
fe07
f3a9
fcf3
31ce
69de
69b4
69ce
699b
69a9
69c3
6985
2084
54c3
6594
28c5
285f
0af5
0aba
0a66
0457
0491
04a4
04a9
328c
32b7
3218
2ff4
2f95
2faf
2f17
3ae6
3aeb
0323
2e03
2eed
2e0f
6123
6109
63e8
740b
749d
745c
740f
508d
dba8
0a42
acfe
acc0
ac15
801f
da72
da2a
38a1
38f8
4b23
1163
4f7f
4f3c
4f5b
41d7
cd3b
cd90
cd1e
3496
233e
23c3
022c
0226
2c9a
2c96
6e9b
6eee
70ff
7022
57ea
2af4
2af2
2a4d
b460
b490
109d
1333
137b
4aae
352c
24d6
24f9
2d33
2d7c
169f
3d9b
681d
c817
6f0a
ed31
ed7f
ad0e
77cc
14a0
f109
58ce
58e2
6d85
6dfd
219f
21f3
712f
719e
d16e
d19e
d10f
8d70
912e
916f
910b
91a9
c1aa
a10d
a12e
a175
a164
a135
a1a0
a1dd
e12b
d40c
5d93
bdf1
bd36
bd8f
bd1b
dd01
7d2a
d832
d8d3
d8f6
a4e0
a48b
8481
84f0
9435
9426
9419
9445
e4a4
f452
f483
c4a1
c437
b81b
984b
98bd
a8ed
a891
a8a8
a88e
f803
f86e
f857
f837
f8e5
883a
e8f3
e8d9
392e
396e
3914
bb6d
9fde
9f98
8fac
8f77
8fbe
8faf
8f86
df65
7295
722b
72b3
cc61
eaf1
ea97
4e9f
090d
5a25
5a9e
5aa8
55a1
6cad
6a94
6abf
6abc
6a09
d021
d201
e630
49ac
4994
de58
de3e
ba91
ba5b
aa2c
9a2e
8a3d
7a31
7a9c
7a79
caed
5e3e
ae33
ae95
fe24
ee0b
ee84
eeb5
ee39
9ef5
9ef4
1e67
1ebe
43ef
53ef
3e74
b062
605e
9021
a04b
2bcc
fc37
ebe4
9bcc
cb14
b9b1
a56f
a5b4
3b61
8b73
8bf5
e097
bcb0
5c63
c52e
c5ce
8c03
95b4
7c0a
7c67
7c6b
ecde
ec9e
859e
29c5
297d
a966
c90b
e99a
c3e8
8357
e37f
17b1
82b1
a2ad
2225
2275
227b
b264
b29f
d70a
d790
9792
876b
262f
7b17
86b4
294f
5009
4042
725e
b142
cf1d
d695
d69e
984a
a14a
f6f3
c034
4ad9
1317
cff6
f697
a38d
fc8f
92fe
c0ad
1ff8
c919
b0a3
8f18
0c85
bac2
7387
32f0
224f
82f2
821c
be10
9211
672c
9686
de13
52c1
97f8
e911
f2d3
47f1
82c4
b21f
2713
8a87
8a83
ba86
e71a
8542
4286
97d9
2725
4ac3
b34c
2bda
cf56
02e7
1bb9
1bbe
3f10
22c1
87d7
6b8a
8de8
cb83
e544
b785
b3bd
9ce2
7918
72c8
c72e
f74b
a64f
f72d
7bb1
f2cb
fa8d
0bdf
fbdf
0cd3
1649
858d
855b
b355
7b4d
55d8
9cc3
ece5
ecef
1cc7
0c40
0c4e
8f52
aa40
8a4a
fe4f
4304
433b
e95b
53f2
85f9
09b7
0be2
03a3
098b
0bf0
0bf3
167b
161f
16b0
19a6
1b0c
1aa7
1afa
26ed
260c
2b0c
27e9
3c26
3ec9
3608
3e8a
4ec0
493e
49a7
4efb
5ef7
59f9
5ed0
5509
5b04
5b56
6809
6ab6
76e1
7ec5
79e9
7619
79ab
7efa
7607
7bfa
7322
86af
89d9
8ef6
8ef8
87ae
83ee
9ea7
99db
99b7
9b05
9b5f
9ca6
a6ae
a6dc
ae0e
aafd
b61e
b73b
b505
b2a8
b7cb
bafd
b5e9
c3ad
c0b5
c33d
c6e2
cea1
c9fb
c2a4
cc06
cae7
deaa
d6c9
e999
e9c3
eaf3
e527
f63d
f3a6
f9f0
f9e1
f7e9
3189
545c
65fb
28ea
0a34
32c2
327a
3222
0d1b
2f34
3ab5
253c
25f2
67ce
67e4
677a
67d9
0359
0336
034d
2e7f
2edb
2e17
2e4f
6115
48a6
189c
638d
741d
50ff
502b
50c7
db98
ac84
ac93
da2f
302b
382c
111f
4fc9
75d8
7513
41d0
411b
cd61
cd4b
cd51
cd0e
3481
2373
235a
238a
23dd
2c03
2ccc
2c84
6ef4
1279
7024
2aea
2aaf
2a4e
0864
806e
1361
4aad
4afe
4a3f
3511
24ea
246b
24c3
0f94
2dbc
68b2
68a3
c8e4
c8b3
33cf
ed15
edd8
ad9a
adc1
ad8d
779b
b174
b1c8
b15e
511c
5819
5827
58b3
6dc7
1d7f
1d10
3f81
21fb
71e2
718c
7187
5f75
5f81
d12c
d1b1
8d62
8dcc
8d79
8dfa
911c
8124
81f7
81d8
c136
a109
a18c
a107
e1ae
d496
d4f6
bd27
dd39
9df4
9dbe
7d31
7d5c
d8de
d8af
fd68
a41d
94e3
b8d1
98ad
a877
a8a5
f866
f858
f88c
88ed
cf03
cfa8
cf27
cfc9
e825
e8aa
390d
bf70
bf92
bf79
9fad
7fdb
7f83
8f23
8fce
8f37
cc66
1c94
ea0a
eaad
ea67
ea9b
0920
09a1
5a03
5a6e
5a24
5ae9
6c95
6c9f
6cb9
d095
7e5c
7b54
7b0d
e60d
4995
ce71
0c3e
aa31
9a3d
8a33
8a95
997e
7a5e
1aec
1977
19f4
0e9f
5e9c
5eb0
be71
ab0a
fe25
fe6f
fef4
fee1
fe96
9e2e
9e68
9e94
1eed
dc6c
d514
5b6b
90c0
a05e
2b78
cb2d
cbe0
3b3b
3b3d
0b62
0b7c
bc0d
c5b5
8c2c
8c2a
9c0a
9c62
3cf5
3c3f
ec95
ec6b
85be
1569
3bb0
a9ba
f5bc
c933
c99c
e92e
f903
522e
939b
c379
8374
47ed
e39c
f3d4
82be
2293
22be
926e
9273
c265
b2bf
b730
b770
b775
9701
f70d
3c06
0712
800f
b849
d001
5ad6
7013
60d0
9043
a009
7695
6f1f
86f9
6040
a0d4
f03e
f03f
b015
62dd
531b
a244
f0de
c252
34b0
c695
6310
27f1
dada
fc5b
c91c
2316
40dd
8219
94b0
f5d5
c71f
eace
52d5
52c9
9016
d7d0
fc17
4215
f389
3c8a
8682
4005
4916
4919
a2fa
dc1c
b711
84b1
ba89
ab19
3b1f
33d6
5a8b
8c5b
2281
5bd9
1bb0
3f16
5c5e
0c57
151d
cc51
6a8e
a2e2
72c0
c72b
a0b9
cbd2
a54c
f3d3
7ba5
7cc9
fccc
4788
af5a
d949
e556
7b40
8baf
fd46
3c44
1bae
ed42
8649
0c44
8cce
a3f9
b956
eb49
194f
3ccf
d956
f640
f64c
53f6
15ab
f5a8
15fb
066a
098c
0cfa
0fe7
0caa
16e9
1eca
1779
1bc9
2ec4
2709
29aa
2b5e
3789
363f
3ec1
33a4
3fef
43a8
49c9
4ed1
47e5
52a5
5702
5cfa
5fe3
620a
6feb
76a6
79fb
798f
72a8
7b09
862d
8ea0
89a8
8bf7
8e2b
8c08
9926
99e5
97ee
9bfb
9cf9
92b7
95ca
a237
a50e
abcb
a327
b708
b6cb
b508
be8c
ba29
bafb
c615
c6a7
c9f6
c505
cedd
ceb3
c57e
caa3
d6e6
d6d7
d702
d6c0
d6ab
d985
d6b9
def6
dc22
d57d
e6d3
eec7
e618
e6be
ee82
e5b3
f20d
f7e7
fb02
315f
31f6
6908
6902
69fd
54a9
54b9
657e
2811
04aa
3294
3288
0d2a
0d91
3a13
257b
2e25
2e46
61b1
617c
187d
187c
632b
74dc
dbc5
acf1
da7c
da56
dab9
30fd
389f
38c9
38fb
11f5
11ef
11a5
11dd
4f7d
4fc4
4fdb
45e3
4518
451c
41b7
cdc5
cd8c
23cc
0278
0290
0210
2c7a
2c8b
6e0b
6e28
12b0
2a5e
1057
08c0
804b
8058
13b1
13f2
13e3
4a8a
3591
3597
2470
241f
0f75
0f71
0f21
2dd6
3d1e
c83d
3390
6f24
ed20
ed7b
add4
adba
b1b6
5101
5128
515e
51e5
58d0
6da3
1d96
3f88
3fdd
3f05
215b
7114
71a1
5f6b
5fc3
8db5
8d1d
8d82
91b1
91df
c11d
c1f9
c11c
a120
a156
e187
e11f
ef7f
ef29
d454
5dab
5dd5
78ce
7890
dd20
dd61
9d84
9da9
7d54
7d3e
d8f7
d88d
d8d2
fd6e
a4fe
a407
84ed
845e
84f9
e472
e43a
f49b
f418
1f62
1fa8
1fa9
c4ab
b8d4
b8c3
b88e
b816
98be
a89c
8878
88ab
8889
cf60
e85b
e81b
39cd
bf31
bf9a
9f31
9f2b
8f74
8fd6
df34
722d
eae9
0962
0938
6c93
6b3e
7e0d
7b72
7b6b
7be4
7bf1
490a
debd
ba32
0c6f
aa01
aa95
aab8
8a54
8a0a
8abd
fa7a
9961
0e2e
0e63
0e51
5e65
5e9d
ae2f
abce
fe98
ee6e
1e3e
3eff
3e5b
d5bd
d59c
606e
6064
5b96
904b
9077
9052
f09e
c067
c091
a02c
40c5
40ee
40c9
eb9c
9b6e
9b60
9b7a
cb6a
b9ba
a594
3b77
3bc0
0bff
8b67
8b2d
8bf4
8bca
bc68
5cf4
b560
8c38
7c73
7c38
9cad
3c9d
853b
15be
89ac
a974
c9d4
c978
e9b4
f9c8
a36c
c34b
c37a
83ce
e330
e3ea
829b
a254
a2b5
226c
9268
c26d
b29c
d703
d730
8762
8764
876c
e7c0
56ec
703e
d0a9
2015
a60d
0631
06ba
06b1
b661
b662
c62e
425b
d692
8143
e012
e0d7
0e17
96fb
803e
9ad6
a03b
721f
903c
a71e
8e17
6312
ead8
74b1
b6fd
b4bd
92d4
dad0
c0a8
eff7
0c8c
8ad3
a21a
f2f1
738b
b7f3
32f9
94bc
9b17
de15
cdeb
b51f
171a
031f
608d
abbf
f7fd
f7f1
e655
b21e
e51d
5ff7
ebb9
7a1d
7a1e
1c8e
62e0
951d
572f
f21a
33da
92c3
221d
5285
a7dd
a58d
dace
f0ba
bbb0
8de1
c31a
5cd1
60b6
b655
e5d0
72c4
9583
6bb8
6bbc
b581
c544
fbda
4727
c3bf
0bbd
10ba
408f
7bae
1a8f
37dd
1bd3
bd4d
7b8d
bbae
eccf
70bc
9cc7
964f
53be
0b85
b30b
cc41
bf5a
bc41
733c
e3f6
83f1
f3f6
b3fd
85a8
e333
075f
09a3
0ca5
19df
1bc7
1e08
1c29
17b8
26bf
2805
26b2
2928
3c2b
4eaf
49c3
59ca
59b7
59cb
5e8f
5b05
5af2
55e5
66ef
6aab
7ea3
7ecb
7983
76a8
7b2b
7b0c
7aab
87a7
89b0
898d
8922
8eeb
85e7
9679
9ece
9ec1
970c
99a8
92a1
9ca8
9aa6
9af3
957c
a939
a6d8
aed4
aef8
ab2b
b624
b777
b6d5
b6ca
b77b
be08
bedd
b2b7
c614
ccae
d608
d6bf
d983
dc24
d203
de86
d536
e926
e6d8
e9bf
e9b2
ee8e
f9a6
f707
f9a0
f7a3
fb09
f7b7
31ad
312c
318a
3107
20cf
20f6
54c5
54ed
5421
54e7
658c
65b7
288a
2886
0a65
0a6a
0a1e
0430
04f1
329c
32b0
3297
3285
2f3a
3a98
3a9c
3a0f
25e7
03ef
035b
03e5
0346
2e5f
6187
1866
1819
18f3
6324
74e7
db54
dbb7
0a49
ac60
acca
ac22
ac40
801b
da99
daaa
daf3
38ff
388b
1137
111a
4f5e
4fe5
4598
459a
459e
4511
75a5
447c
445c
44ca
cd6a
3498
3409
0224
02be
2c98
2c8c
6eb3
6e11
6e13
12b4
57d7
6413
b40c
106d
108d
082e
08ce
088d
4a12
3596
35d9
2d01
2d04
3d20
3dae
3d88
3da6
6801
6822
33cc
edb2
edf6
ad3b
ad0f
add8
73fe
b197
517b
519c
51ee
51d2
51fa
511b
14e0
6d3e
6d83
6db3
6ddd
1dcf
1d3c
3f98
3f0e
2108
7194
71cb
5f9d
d196
d1a9
d117
d115
8d35
8d59
9160
9128
8133
81f5
8166
818d
811c
c123
c193
c1c3
a137
e1ea
e164
e1ba
e1bf
e126
efd3
d4ad
5d03
5d70
5d77
5d5b
7822
ddbf
ddb7
9da4
9da5
7d70
7d5d
7d27
7d11
fd61
fdc1
fd59
fd86
a4db
840e
943b
949f
94ef
e445
f4f1
f479
f41d
1f73
1fcd
1f6b
c40d
c425
c404
b893
987f
37cc
a875
a8ab
f872
f8f1
88e7
cfac
e801
e872
e830
e8ce
e8e4
397e
af6c
af77
af95
bf7d
9f72
9fb4
8f30
8f3d
dfb1
df7a
7227
cc7b
1c7c
1cb2
ea3e
eab7
09ed
097f
55ce
6a7b
d0e3
7e24
493b
4914
497a
ba4b
0c39
aaf4
8ab4
8a35
fa38
7aee
19ec
19f5
1995
193d
5eff
5e9f
be73
ae0b
ab03
fe73
9e20
9e61
9e52
1e78
79fe
8e9a
3ede
3e7b
dc6b
dcbf
d563
6025
602b
5b72
9095
c063
c0e0
c0e7
a067
a028
2bb4
2b36
fc63
9bc5
9b6c
fbca
cbec
cb2a
cb9c
a501
a5ff
3b2c
3b9e
bc6d
bc92
b5ba
8c7a
956c
3cde
3c32
3cbf
152a
e524
e590
e584
d9f4
a99e
c934
f92f
f957
3f5c
a3f5
a3c0
76de
8264
a228
2223
2292
226b
927b
9228
a7c0
97c5
8754
f774
e714
d0a3
0668
b6ec
c669
0c08
6d40
bc8a
0ff0
d6f6
d691
e042
46fe
d51d
66f2
6f11
bc12
cff4
77f8
e01f
6b16
f693
aff0
a04e
bad5
82d5
cad4
7ad5
b69e
b69f
cacf
aad9
6c1f
1556
1559
70d7
d65a
c257
a717
12e0
b4b8
b0a0
af1a
0c8b
551d
7ac9
7311
7389
fadd
94b4
52d0
ef1d
b08b
928b
c24d
1c1b
5bb1
0682
b2dd
125c
abb6
72dd
4008
f585
f4b7
70a4
a2fe
a7f0
c68a
271d
5ff8
3c17
0c15
a2d9
fb8d
7f16
92c2
a7d7
a58f
bc51
1bb6
fe10
f25f
b687
b68f
0c52
bbbf
a2c9
bce7
43bf
6ccb
f2ca
fa88
b585
e727
f2e6
42f7
5ba6
7c56
1588
1cdd
1a8b
1a81
de4a
de4c
478d
828e
858f
0643
1545
a3b5
9ccc
5e40
e646
bf59
b556
8e4e
a35b
c30f
d756
e756
e75e
a5a9
60fa
b5f9
a0fd
15f6
e337
0673
0735
0ec8
09db
02a3
077d
1626
16e2
16ed
1619
16d0
1b26
1b29
150b
1ef6
1cf0
261e
2232
2ec6
2708
22a4
22ae
3808
3997
39af
37bf
37a6
37e3
4ead
49fa
5606
56b5
5c0f
52b3
6621
6b29
660c
620c
63ac
6cfb
767a
79e2
7ed5
7985
792b
72a6
86e3
8e85
86ab
8eb6
8c09
9735
96be
93a4
99a3
99b8
998e
95c3
a635
a602
aea0
a609
afe1
afe8
aa2b
b20f
b9d0
b2a1
b7e3
b3e6
c739
c9b5
c707
c6aa
c705
c98e
c7c7
deae
d621
d908
d986
d9d0
dcf9
eec0
e777
ee85
e9a8
eee7
f616
f73b
f63f
f80e
fed8
f5b9
31f8
3106
69a1
69b2
20c5
20ee
5498
549c
5405
6590
655d
2834
0aae
046e
043c
2f7b
2fbf
2fa0
2f8d
2030
2038
2556
2581
25e3
0333
612c
4881
1881
63f2
742a
50e5
db75
db78
db52
db86
ac33
ac7e
ac59
ac4c
da84
309a
38e8
3810
3816
1133
119f
4fff
45c4
45a5
75fe
7511
44c2
4409
44cb
41f1
cdd3
349d
34fd
23eb
2329
2c04
6e01
70ea
7084
70f8
2a68
64e4
b466
b46a
b4a9
b427
b4da
1049
460d
08b4
08ba
08b5
80e2
8081
132e
35ea
3595
35c4
3dca
6803
33ec
ed54
ed3b
b13d
b155
b1da
51b8
5884
5885
6df3
6df6
6d1b
1d7c
1d52
3f9b
211d
21f2
2112
7193
71e9
8d6c
8d85
c1e1
c1c6
a12f
a197
e188
e1d2
ef96
d4d5
9d70
9db0
9d39
7d03
7d5f
fd2f
fdf1
a45b
a402
84c5
842a
84af
84cb
942f
948b
e476
f4ad
f46a
1f3f
1fcb
b826
b88b
b887
9895
9884
98ef
9837
a897
f8c8
8891
889e
8836
8810
e820
e878
e8e9
39cc
3990
397c
af6d
afd0
afdb
bb0a
bb9c
7f03
7f67
7f94
df38
df7d
36ea
4e7a
4e5e
5a77
6ab2
6a06
d07b
5901
592e
7b55
d290
debc
ceb5
baf5
aa72
aa74
aaad
fa68
fa55
7a90
1a6b
caac
ca91
194b
5e7b
be57
be56
662e
abad
ab14
ab6b
ee59
9e55
9e7b
1ee6
43ec
439e
8e75
8e7f
8e97
3ef5
dc62
dcad
dc98
d554
16b4
6020
90f1
90ef
c062
a077
2b01
2b33
2b28
2b9c
409d
40e9
eb33
eb9a
ebca
fb96
b990
3b7c
0b61
8b30
1b75
e028
5c79
b5f1
b59e
c5b2
8c68
7c92
9c33
9c6c
9c90
3c0a
1554
1595
15e8
e562
892f
899e
d90d
2972
e969
f99d
9363
93fe
83c5
836d
b331
762e
f39a
22ac
f296
a7ac
f761
f7e4
178c
b6bd
435e
294d
8004
403e
60dd
2add
46f4
6a10
6a1d
86f7
77f6
36ff
b69b
b692
d28f
803b
9ad4
cacc
b916
22f5
22fc
6ac2
70d5
70df
b005
b002
92f1
7388
6cdf
224e
ab81
7788
ef1b
ef1f
ee10
6722
0656
8c1e
cde5
a723
d2c0
1f13
9311
c7f2
c4b4
c4bf
82c2
72da
e513
0918
8344
3cd8
ca82
851e
2256
3b1e
62ef
cc82
e58c
5a8d
e002
9255
e343
dde0
cb88
b787
e5d8
f683
72cb
a64e
7bbd
6cc6
47df
c7dc
1746
95d3
77d3
62c1
5309
b2cc
3bd9
27d8
f78e
9358
9f43
3de2
c65d
c651
5c4c
9bd7
fce2
0645
855a
7b82
558b
9c59
cbb8
6ce0
630d
9b40
9b45
9b4f
0cc3
864c
a5f9
e35b
aa44
fe43
1e46
9942
ca49
83fd
aba5
ee4e
15af
b5a6
0eaf
0eac
073c
1633
16e4
19f0
19bf
1907
13ac
1ae5
26a0
29b6
29bf
3eae
367e
36a5
4622
4ece
56ef
5e0c
523b
53c7
53c3
6ea9
66b3
63a0
6607
6cf8
79eb
7bf6
79b9
7eb6
7ab7
8926
8ecc
8e05
898e
8e06
8c0f
8c0e
85c3
92a5
99f6
9aa7
a809
a806
ab52
ae08
a321
aa22
a597
b618
b67d
b982
b709
b6a4
bbe5
c202
c236
c771
c9b2
c9fa
c7e7
ca0e
d635
d6e7
d9df
d9cb
d7b6
d7ae
e638
e622
e70b
e98b
e329
e57e
e53c
f629
f20c
f203
f9a5
fbe7
fe8b
20ec
20f1
5495
5439
501c
65c5
657f
65e8
28b4
28e6
0a04
0adc
0a1f
043b
0437
04ee
32e7
0d43
2f36
3a02
2571
25c0
255c
67b0
67ee
67dc
2e68
2e7d
2e82
61f5
618f
4803
4897
18a5
1813
63ec
63f6
7481
74f9
505f
dbf3
0a40
ac0b
acaa
dabd
382a
1105
4f1d
4f27
4fe7
45bd
45a0
45a3
75ac
445e
44fc
cdf4
3427
34f6
34f9
232f
2324
0264
02b8
2cb1
2c06
6e16
126c
1287
705a
2a6e
6421
b454
b4d9
1058
46c5
082a
80e4
80e9
13c8
139f
35db
2473
24fe
2436
248d
3d2a
3d27
687d
6829
68f8
6813
c8f7
c8d7
c8df
337b
33eb
33c9
6f95
6f88
ed69
eda8
edb3
adf0
b1a8
b1db
b1e3
51d4
51cc
51e7
5118
58e3
1dec
1d32
1d2b
1dda
3fc7
2178
71de
7123
71f8
d1ff
d16a
d11c
8dc1
8d81
8d1b
91ec
91c2
91dc
812b
c10f
c11f
c106
a191
a196
a13c
e10b
e16b
e19a
e152
e1c3
e10e
ef65
ef93
5d62
bd3e
bdaf
bd09
bd5b
bd1c
7889
78a7
781e
dd2f
dd7b
dd5a
dd52
dd26
dddc
7dd8
d8e0
d827
fd35
fdb5
a427
8430
845b
84fb
946e
94f6
e402
f4d6
f412
f44d
f449
b83f
b8be
b8af
98ce
987b
9879
98b2
98a9
98f8
a8b8
a876
f8e0
8854
88ec
882b
cf02
e8d4
e8a9
afb5
afbc
bf2a
bf38
9f78
8f2a
8f9b
df94
df89
cc2c
cc90
4e91
5a3a
6ae8
6b23
7e54
7e73
7e84
7eb0
49b1
de6b
bab0
9a38
8a61
faad
7a54
7a74
1aa1
1a5e
ca72
ca5d
1901
5e4b
ae01
ab94
fe91
ee14
53ca
8e84
b091
dc31
dc9a
d5e2
5b58
5bc4
902f
f069
c0cc
a0ef
2bf1
2b76
9b36
fb3a
b934
b935
b97b
3b6e
0b6e
e063
e073
e026
bcec
bc96
5c0d
7c3a
7c98
7c79
9c4b
9cd4
9cbf
3cac
ec7d
ecb8
85cf
1591
079e
e5ed
2901
a90d
a92a
f59b
c97b
e933
e9c0
f92d
422c
4290
936d
936b
c303
83e2
4792
b330
b354
b32e
f36d
176c
a273
c221
b23a
b261
d7ba
2763
f79f
7b15
d662
a60b
866c
c6ad
c6ba
2940
265a
2507
1014
625e
d0d3
d005
e145
e14c
e14f
46fa
46f3
335b
8ac6
16fb
6045
0e1a
cad3
a38c
8033
7212
6acf
d657
fc8b
d5db
f01d
3717
b0a1
8f1e
5a1a
8ad9
7ac2
1ac3
1ac2
40da
40df
bac0
3692
c34c
c21a
37fa
ef1e
6723
8c13
771c
97f7
a72e
7ff4
e65b
3c81
b210
fa1f
268a
3688
f4ba
f240
831d
834c
84b7
9513
10a0
c2ed
b2e8
97d5
9729
ec8a
22cc
f28c
934e
f910
a65f
1b8c
1b82
a558
f72b
43b6
5f51
b541
15d2
e3dd
9359
dc55
7cca
1643
af56
93b1
5ce1
7b8f
e552
eccc
1ce5
c359
ece6
3b41
3c41
1c4c
ef5d
9e45
b30c
0f43
0f58
1b40
894e
c55d
a5f6
7f40
b95f
430a
fb4e
f751
b0f6
f33f
06db
073d
0237
020a
06c8
0605
1621
1986
1739
19b7
1eda
1502
1e09
1fef
1fe9
1cf8
177a
1fe3
26eb
273b
2739
2206
29a9
36b8
390c
36df
380b
357b
461e
49b2
5623
5999
59e6
5ef8
550e
5502
5e8b
5cfb
662c
66c7
62af
6cfc
7e0e
8737
8edf
8989
89a4
87a5
87bc
87a9
9ec4
9602
9ecc
9628
9987
93ab
9eb9
95c6
a628
a20b
a7e5
a7a4
a5c6
b3ae
bafa
c726
c6a8
cfeb
d6e1
dec9
de82
d7b3
eecf
e6c9
e9f2
eb51
f673
f61d
fb22
f6cb
f6da
f776
f6aa
f93c
fc28
fe09
fca8
f2b7
fa28
310a
31e8
3117
6999
69af
6939
69d6
2087
5401
54ae
658a
288b
0a8c
04b9
04c6
32a6
0d34
2fbc
3ae2
3a8c
3a1c
259f
2585
671e
618b
61d5
6118
48d6
18eb
18a6
740e
ac5a
ac1d
da8e
30be
38b3
38df
119b
4f83
45ff
453f
45f1
4585
7524
75df
44ac
44e4
4497
4419
4139
cd8e
34d7
34d3
23b9
23c6
2cf8
2c42
6e85
6ef9
1286
709b
571b
2a4a
6493
b473
b4d7
b402
b413
087e
8077
80c4
80e3
8044
3007
4a96
3585
24af
0f23
0f97
0fd1
2d84
2daa
2d87
3d5f
3d99
68ef
68dd
c810
33ee
6f08
adf5
ada4
adf3
ad17
779c
b12e
b125
b156
5184
51fd
58ff
58e6
6da4
6db2
6da9
6dc6
a252
2101
21c1
21c3
21b7
71d2
711a
d133
d1d7
d1e5
8d5d
8d17
8d11
91f5
81c5
81b1
813d
81eb
8115
c1ca
c1af
a125
a17e
e129
d491
d46a
d479
d45d
d4f7
5d19
5d1d
78d9
dd0d
dd99
ddf0
9dc8
7d89
fd57
fd9c
fd93
a44d
94e0
94e2
948e
e4f8
f46c
f482
c465
b830
b8ee
98b4
989b
98ab
f8f2
88c3
88a5
cf2c
cfcc
cf08
cfa0
e875
e838
e88f
e8d8
e813
af03
bbff
bf90
9faa
9f83
7f09
7fc9
df30
df85
df0c
1c35
ea65
eae3
0964
5a32
095b
552f
6c96
6b84
7e2f
7eb5
7eb2
59f5
d272
ceed
ba2e
0cec
aa0b
9aba
faff
fabc
9930
996c
9960
7a0a
7aed
7a14
7a7b
7ab5
1ab8
ca2e
ca5c
1992
0ebe
5e35
ae78
abed
ab34
ab6c
ab3d
7994
8eff
3e6b
b0ed
b0c0
b0e8
dc92
90ec
c021
a09a
a0c1
2b3e
407a
fc0b
fc73
fcd4
eb68
9bed
9b58
9bc0
cb23
b967
a5c4
3b01
3b94
3b96
0b9a
8b6a
1b6f
1b78
c5b4
953b
9c2e
9c78
3c7d
3c36
ec2e
8564
152f
1557
15cc
07ad
3bb8
8961
8924
89e4
d969
2971
52ea
5225
a3de
a3ce
8375
47de
b3ff
822f
827d
8299
f267
9270
c274
200c
b272
d766
a774
b766
2764
27ce
870d
e79e
c7a1
26ad
d783
d66c
a670
a6de
b6a1
c66e
12c4
12fa
d7f7
e045
904c
a01b
7691
8ac8
5c8f
c0dc
069a
603f
5e15
a03a
a03e
e698
f0d5
9712
72f3
80a6
d71a
fc5c
62f7
62f4
375c
e4b3
eff0
d723
7c86
c51a
e384
e38c
c219
778c
7716
1e1d
1e1c
d2c1
1c19
f2df
031d
c4be
a28a
72d4
b212
f510
400f
268b
c68d
8b8d
2258
225c
3b18
e7fe
865d
f65c
1a12
ec5e
90b3
9724
9bbf
0e49
3318
17d0
17d7
8ff5
8de5
d55e
7de5
b3ba
43b2
ecd2
6bb6
174a
8b44
ebd2
73d0
8ce4
fba0
15dd
772a
b251
5f43
43d0
c28b
2ba9
3941
bd43
8556
c35b
5d40
5d42
8d42
3b49
cbb6
1cc1
ef56
6306
0cc9
b555
8645
7e40
aa4a
93f2
ee4d
2952
b3fc
b757
85af
95a3
b5a5
06e4
0edc
0708
020e
0ed3
16e3
1ecf
1ea7
17a0
17e1
1cf2
2ec8
26c4
290e
2605
2bf6
3804
3927
4625
43ad
49b5
49d6
493c
5628
56be
5ec8
56a8
56a9
5bc7
5bf0
5fe0
5afa
66e5
6609
6c22
6be7
6aa5
767c
79a6
720e
79f6
7b29
8ead
83a8
8b29
898b
962a
9edc
9236
990f
9996
9776
96c9
980e
93a0
9cb6
a625
aecf
a733
a908
a9e8
ab04
a504
aa0e
bec8
bed9
b904
b7c9
b529
c9be
c7a3
cbfc
d6eb
d9db
d73e
d660
def0
d799
d5ca
e612
fb26
f9f3
fb5f
f7c3
fae9
3188
69bc
69dc
69df
209b
501e
65b4
65a9
28ef
2836
0a91
0aaf
0ae9
0461
0466
0476
042b
04e9
321a
0d22
0dc7
2f82
2fd9
3a65
3a4d
253a
2578
25d2
670d
6791
037a
03e3
61ba
617b
617e
185b
7401
db60
dba0
acb6
307b
080f
11a8
45ae
4588
440f
412c
cd69
cd10
34a9
233d
23e6
0254
021c
2cef
2c16
6e9a
1261
708c
2a62
2a33
2a60
2a81
2af9
64c9
b4f8
10c5
106a
46dd
08ef
081a
804a
136f
24c4
0f36
3d22
683a
689d
68be
33f5
6f07
ed66
ad3d
ad28
adc6
ad15
b1f1
b1ae
b127
5110
58eb
1dad
1d0b
3f08
2175
2176
21a5
21dd
71b7
5f65
5f62
d177
d1a3
8d54
8d38
917d
81ee
c1ac
a171
ef60
d492
5d1b
bd2d
bdbd
bd04
bd0c
78d4
78c2
787d
ddcf
dd81
9d3d
9dd0
9d83
9df2
7d2d
7dd7
d83d
d811
fd4b
fd75
fd34
fd09
fd85
fdd5
a401
a4dd
a4fa
8462
847f
9417
e463
e492
e428
e405
f49f
1f63
1f95
1f8c
c4fe
c4e1
c4aa
c487
b87a
98a8
a8f9
f875
f87c
f88a
88fe
883d
88e3
881b
e817
9fbd
9fa8
9f8b
9f8a
7fa6
8f83
8f02
8f06
df4b
df6a
eae7
5a61
ea17
6cf4
6a23
d0e2
d096
7e72
7e6a
59c1
d275
d26e
de57
de3f
de84
ce7e
ba3e
bab2
aaf1
aa59
8a59
fa3d
fa6b
7a08
1963
0e73
0ee8
be66
bee1
ab3f
fe7c
fe99
9e2c
9e3d
9eb5
9e5b
8e94
8e7a
3e32
3eef
b0eb
b0e5
d5ee
6077
6060
5b60
9072
902c
f02d
f0c9
a063
fc20
fcea
eb7e
9b2d
fb6c
cb33
a5ba
0b3a
bc60
5c72
5c2d
c564
8c67
9565
9523
95ce
9c74
9cf5
3c75
3cff
ec97
07e4
8968
d93b
a962
a925
e99e
f9ad
f93b
93b4
c33a
1921
47a1
f37b
17ce
82b0
a295
c277
b22d
a762
b7b4
979e
f766
f7c1
e7ea
e7ed
b6b4
0c09
0718
12c2
24ba
984e
76f3
d249
d2e1
569d
7694
5f15
4ad8
8ace
4010
d215
9142
aff4
4694
aad0
b91c
6683
64b6
70da
72fb
bb1a
c018
9ff0
af18
0c89
7383
6cd5
37f3
778d
8719
52db
cded
df10
901b
e91e
1713
9315
1255
c386
c38e
868b
a286
22e7
a7fb
30ac
ba88
3c11
52e1
1b19
10a9
8389
8540
8651
825d
a7d8
b34d
5bdf
b38d
9252
e341
a2c7
bce6
9cd9
9cdc
6a87
c745
7917
c2d8
6cc3
42e4
9f5b
92ed
62ca
ea85
42c9
1cd9
772e
5c44
7c4a
b74d
5582
cba6
8d4c
3783
cbbe
dd41
dd4e
8358
0b4d
7a40
0f4a
bf58
e35a
a3f2
4309
83f7
ef43
e75b
e759
d95b
3958
55a9
b5aa
06a6
060f
0928
1ec0
1509
1504
1ab7
267b
2908
27e7
36af
4806
4edf
43ac
480c
4e8c
4922
5808
5809
5be2
59e3
5921
55c9
6625
6611
6cae
76be
7be9
8615
8777
8be5
89d1
850a
9612
9234
99ca
9205
97e1
9bcb
9cf8
a906
a985
b637
b809
bed6
b988
b9d2
beee
baae
c80d
c671
c629
c9a7
ccf9
cca8
c227
cafc
de26
d63b
de8d
dcaa
d526
e3a7
e596
f070
f904
f9d5
feda
fb04
f7eb
feb9
3187
2099
54e8
540c
6560
65c6
284d
0a62
0a75
0aaa
0ac6
0ae3
04ed
04c3
32e1
32d7
0dc5
0dbe
2f8c
2fd2
2f4e
3aad
3a2c
3abd
3a15
3a43
2501
25e4
204b
03b0
2e4b
2e90
61c7
313f
18aa
7414
74db
7486
74a3
5099
508f
dbcb
ac64
acc1
ac45
801c
da04
3082
38bd
4b03
11d5
1107
45a9
4489
cdd4
cd39
342d
3414
34ef
34ca
3497
34ee
34ae
027f
2c6c
6eed
1230
122e
121f
7090
57e8
57e9
2aa1
2a39
2a06
647d
64f2
64fa
b437
08e0
081b
8022
13d0
4a28
4a15
35e4
351e
35e5
24e8
0f66
0f98
2d71
2da6
3d09
c88e
c818
c81a
ed38
edf7
ad20
adfa
73cb
b179
5199
51af
58f5
5822
58d2
6dea
1dc0
1daa
1d13
21a8
215e
5fd9
8d64
8d68
91c0
9152
91da
9107
81e4
c127
a1b3
e120
e12f
e193
e1c6
e185
efea
d4ce
bdd4
bda4
bd5f
789f
78df
dd03
dd9d
ddb0
7d0a
d887
fd6b
fdb2
fdae
841b
8416
94e8
9422
94da
9442
e45d
f477
f4aa
1fed
1fdf
c4c5
c4ff
c46a
c452
b892
b8b9
b8b6
98aa
98f7
379b
a890
a8cf
f894
88c0
88f3
e851
e837
394b
397f
3932
3991
bb72
bf2c
bf6d
bf0c
7f9e
7f04
8f6f
df23
df9b
df09
7223
cc9d
1c23
1cf5
1c78
1cb5
5aea
5aac
5a69
5a7b
55f1
6c7a
6228
d068
7e0a
7bc1
7b37
49c4
deb4
0c20
0c66
0c3d
9a3c
fa84
1a6e
1a51
ca01
cae4
ca7e
ca51
0e94
5ee4
ae77
ae7d
ab72
ab30
eee2
9e65
1e3c
79ad
8e67
b075
b0e7
60cf
f025
c0e9
a0ce
a0e5
2b31
2b7f
2b9f
4095
9bca
fb77
cb2e
b9c2
a575
a590
a5e6
3b75
5c68
5c91
b59d
c563
8c74
8c9b
9569
9c2a
9c60
3cc2
ecec
eced
85c4
156c
15a1
899a
d920
d963
d968
a932
a9f4
f5e1
c97a
52ac
a367
9366
47cc
b3c0
f3ed
a271
2284
f2ea
f294
9262
d73a
d79e
96ec
8731
c7b1
c766
1782
7b1e
7b1f
b601
8670
c60b
12f4
b14c
735b
9840
4039
e04e
a011
d24f
5c84
6f10
cffd
cff8
e013
a049
f036
26f7
b012
b911
a690
1ad3
60a9
72fa
269d
9e15
b4b5
fc58
375a
e4b9
e4b2
e6fc
b0a8
eff1
7acf
7316
aa18
1916
c21f
9b12
968c
7715
ca1c
d7db
1257
6085
5de2
84b0
2c51
c3d8
3b10
8a1d
1c87
1c8b
fb8a
d640
e587
face
f656
f652
338b
90b6
ec86
3912
5c5c
bbbc
1518
a2c3
9cd7
f744
a0bc
fbb3
5b40
5b45
f711
0bd9
1f5b
7281
abd0
3bdf
8ce9
e781
9351
42c3
7ba9
37d8
37d5
43d2
872d
93ba
ecc6
70b6
dcc4
fd45
fd42
f3b6
8c42
e94e
7e49
ef4e
8956
e956
1952
43f0
55fc
9336
023d
09ae
06d1
09fa
0eda
09b9
0922
1671
1ed4
177c
1599
2ea0
2226
2929
3ea6
3604
380e
39c7
3b05
4ea7
4ec3
43ae
47c6
43e7
56e5
5ec9
5ea0
5604
53ab
6ed6
7bcb
7e08
7aaa
8735
89ae
8eca
89a3
8ed2
86da
89f3
86d2
8e8c
8fe8
8af3
96b7
96e4
93a7
97c7
9329
a637
a66a
aed2
a5e5
b2a5
b67e
be0e
b77d
beb7
ba02
c6b0
c982
c6dd
c6c3
c7bf
cbf9
cb5f
c77d
ccaa
c3c7
d9ae
d90c
d50e
deb9
d57c
e808
e625
e778
eeda
e92b
e7c9
eca0
e796
fea6
f6b8
f3af
fcfc
faab
69ee
2071
2059
65e2
653c
6589
651a
28a9
0a95
0aa8
0a52
0a89
0aa3
0498
0496
0487
329e
32a0
32dd
2fef
3a36
3adb
2577
2593
25c7
675f
6710
0358
03c4
2e9c
61ee
48ab
48f7
48d1
188d
639a
63f8
7498
747a
743e
5028
50e9
dbe2
ac32
ac2b
ac1c
8019
da70
4b13
117d
11b7
4f14
4fc0
4fa0
45e2
45d5
7515
75a3
44cc
443f
417d
41a0
340b
348e
3402
2303
23e5
0288
2cad
6eb4
6e0e
1223
126d
7083
649c
6404
b422
b405
80cf
1375
4a86
4af9
35de
35b3
240e
0fc0
0f8f
0f85
2d6e
2dcf
3d84
3dbf
68a1
6890
c8de
c8e1
c8b2
c88d
33c5
edba
edaf
7325
737d
73c7
77ec
b119
b111
519d
519b
510f
51cb
51a9
58c5
58b4
6d90
6d9c
6d82
a251
1da4
3fb4
3fb1
3fc0
3f7a
210f
7198
711b
d10d
d16d
8d1e
910d
916e
915e
91dd
810a
81df
81e3
c1e8
c156
a124
a1dc
a181
e1c8
e10c
d4c5
5dbd
bdb7
78f6
9d61
9d3b
9d87
9df0
7d69
7d51
d8ff
fdec
8476
944b
9405
e455
f4a9
c46f
c498
c458
c45c
c44a
98a1
98a4
9889
a826
a88b
a8a6
f871
f8a3
8839
cf61
e824
e8db
af7a
9f30
9f28
9f9c
9fcb
9fd5
7f98
7f7d
7fae
dfb0
dfd8
168b
cc60
ccbc
1cff
ea9e
5a94
ade6
6c9d
6cf1
6a2f
6a2d
7e66
d2b2
49bd
de25
deb1
ce30
ce9c
ba72
ba65
aa6b
8a20
8a9a
993d
9991
999e
99c0
7aff
7af4
1a0d
1a0b
1a23
19c4
0e5f
0e97
5e75
be6c
be3d
ae6e
ae9b
ae97
fe72
ee9a
ee76
1eea
b06b
dc34
d5b4
60ee
5b77
5bf4
5b9f
c02a
409a
409e
fc3c
eb01
9b54
9b3a
9b78
cbd4
b99e
a56b
a59f
3b30
3bc4
3bcf
0b97
8b2e
8be0
8b76
e06e
5cb0
c569
c56f
c5ba
8c34
8c3c
9514
7c25
ec63
ecad
8501
8598
8593
07cf
e53d
8971
c9c1
e97e
3721
a373
c32f
b379
e32f
e370
f3c5
f36e
179f
8267
82b4
a2ec
a22e
f277
9264
c273
b769
b7c0
e76e
e7e4
c7ce
10d4
10de
0672
f667
465b
435d
d018
725c
b04d
625d
5ad2
d696
7692
77fc
f695
badd
82da
6219
3015
70d4
a74a
fc82
b2f5
9710
27f9
3e1b
d713
92f8
7c18
7c11
8f13
7c85
731b
a211
b7fd
f34f
1910
224c
c215
37f6
f5d3
40aa
e68a
ee1d
8c12
968a
7718
1e1e
e0a5
c24a
d2ca
a689
d7d6
c7fd
f7f5
22e0
22e6
3cdc
44b4
f0a0
aac0
e310
0c1a
851c
8c82
e71f
572c
5a87
4287
a586
5bd1
a3dc
82e4
391f
330f
165b
b5d2
1b85
c74c
c74f
bf45
cbd6
9a8a
9a86
0bb6
a08b
f55a
dc56
5c46
7c4e
b64a
5ce7
c649
bba0
1ce2
8306
0b86
9bae
ab4e
9e4a
ea45
ed4d
9559
a5f2
fe41
3ce3
aba0
075a
0758
c95c
995b
95f3
b0fc
55fb
0614
0ecb
0908
0eca
06c9
06ca
0203
19e9
1e26
19f7
19d9
1ed8
12a8
1eb6
2ec5
23a7
2996
2207
36be
39a3
3bfa
3921
462b
49b6
560e
5edc
5cf6
62ff
6ec4
661b
66da
66dc
6239
731c
76d5
7cfb
7a29
89e2
8ed9
877b
8b5a
83e5
9626
961a
99b5
9b29
96b6
93ae
96c1
97a8
9ef8
9eee
9e88
9c0e
9522
a324
aec5
ae29
a20a
ab29
a9a0
a9a7
a6bc
aef3
a7ae
b237
b6d7
bb06
b6bc
bfeb
b9e0
bcf9
beb9
c9e9
c7c6
dc04
d739
d9dc
ded8
dc0c
e6ee
e6e7
e9d5
e98f
e7ee
ebf0
f6ce
f804
fbe9
f7be
fa02
317b
31ef
31a9
31d5
6928
69eb
69e9
6912
2077
5428
6591
659d
65c0
651b
2825
28e8
0a29
046d
0436
0456
32d3
321b
0d28
0da4
0d0f
0da5
0db6
0de5
2f7f
2f13
3a72
3a2f
2567
2511
679b
67a6
6713
035a
03c9
03fa
2e96
6185
18e5
6303
63b6
63d5
63e3
74ed
7499
7485
74d7
50f4
508a
da54
3028
383e
38e7
112c
4f8e
45b1
45b3
449e
4440
cd86
2354
232e
2363
23b8
235d
0261
0294
0298
029d
0279
02bc
028a
2cbc
2ca3
2c40
6eb9
6e82
7060
5717
57d8
2a29
647c
645b
b477
b4e8
b411
4601
0878
0899
08ae
8078
132c
1358
35ad
35bc
2430
2427
2d2c
2dff
2dd4
2d0c
3dfd
68ac
68ed
687c
68eb
6819
c8ff
c85f
3395
6fde
6fb5
ed5c
ed99
ad22
ad05
b1e4
5103
51ca
5197
511f
51d8
58cc
6ddf
1d71
3f91
3fc9
71ff
7190
710f
7118
5f7c
8d6e
8d24
8dbc
8dfc
8dd9
9191
918b
8120
818b
a17f
a1c2
a15c
e12d
e1eb
e11b
e107
efaa
bd65
bd66
bd9f
bd79
9d13
fd14
fdda
a48d
84eb
946b
941b
e43b
e48f
f428
f4eb
f481
f48c
1f9e
c46d
c4e2
c4f0
b8b0
b8a5
f8ec
88f5
8813
cf3b
cfbd
e82d
e833
afb3
7fa1
7f71
8f33
8f38
df2e
df67
df71
cc01
1c9d
5a63
3ba4
1c52
55bd
6ae7
6b99
6b97
d05d
7e99
7b73
d26d
e654
baf4
0c9d
0c7d
aa78
9a70
9a0f
8a2e
faa4
7a98
1a96
1a39
ca59
190d
5e33
ae0d
ae2c
aebc
663a
fe35
eede
1e32
793a
3e9a
b0c4
dcac
dc25
dc6f
dc14
5bed
9051
c025
c06c
a064
a07e
4079
9b0d
b96b
0be1
1bac
1b69
1bd4
e05a
5c95
c5c1
8c2d
8c6b
95b8
3c79
8521
159d
e573
8933
d93a
d9fe
d935
f53a
f970
427e
9368
93f4
b34b
e3c2
f390
f396
1798
8254
8269
82c5
a277
a2bf
f231
927f
2007
d7d4
a7bd
b7ce
87ba
876d
e70a
130f
6640
12d2
e840
f844
a516
701f
60d5
a849
a141
a142
46f9
5910
4ad3
a6f0
e017
cadd
26f4
a387
b01d
6212
5383
1ad9
60ae
9718
12ed
dad6
c0ac
62f5
d545
9a11
e034
5a1d
991a
b7f9
94b3
9b19
b314
1e18
1e1b
901a
97fe
9c8b
1c1c
0681
7a82
02db
b24e
8919
f7f6
e65d
f51f
4007
400c
2689
831b
4315
50aa
7a1f
3c1e
ab11
62eb
2bbe
f217
f219
7f17
2211
5286
fb17
2724
5bd8
ec88
3317
3312
7bd9
80bd
6ba7
a55a
7cd3
bf4c
73b3
c724
a64d
47d1
5f5a
b543
b58c
8b46
f540
8bb2
83b3
ea8f
ebd7
472c
27db
4083
9352
42c6
3de3
1a83
4781
fcee
064f
c644
1542
5588
ecc7
1ce8
0ce9
dcc1
eceb
3b46
1ccf
3c49
3c42
094a
0946
094e
cc40
3e4f
f08a
955a
aa41
e308
e757
c951
c5ab
55a7
f0f2
9339
0909
0e82
0b51
1622
1611
19e2
19f8
1609
190e
1579
2610
2b22
22a7
2bf3
367a
398a
36c7
3999
6ec6
76db
79ef
7beb
798e
7505
72a0
8cf7
8678
863e
8611
8610
8ec3
850c
87b9
87c9
8cb9
83cb
9bfd
9fe8
9ab7
aed7
a6af
a7be
ae83
abf3
b7e1
bbc6
b7b3
c778
c618
c67a
cbf8
d6ef
dec6
d2ae
dcb9
e982
e9d6
eb5e
e77c
f613
f9a9
f80b
fef8
f7ef
f7cb
f5e9
3194
3111
172c
209d
54ab
65c7
6511
0a63
0a35
0ab1
0a7c
0afb
04be
329b
3296
32b3
0d75
0d84
0de6
2f9f
2fb0
2faa
2f05
6709
675b
2ee0
2ed3
61ac
61db
48b8
48ef
187e
1897
633a
db67
db96
db41
ac66
ace7
ac07
da31
da3a
daf9
da06
3094
38e5
1109
11a7
11d1
4fe2
452d
752a
75bf
75be
75f9
440e
419e
41f7
cd57
34c9
2c33
2c07
12b2
7028
2a0b
2a38
2a8f
648b
6405
b409
08f1
0859
0822
088e
0885
807b
8046
133c
13b3
3516
0f3a
0f7d
0f1e
0f0e
2dea
2dc9
2df9
687b
68c0
c869
c8c1
c8af
c8d3
3394
6fb4
6fd9
edd6
ad2c
b1e6
585e
58a7
6d95
6d06
6d07
1d97
1d8a
2171
2122
5f54
5fb9
d16b
d1f2
8d2a
91ad
9198
91ae
911e
81b4
c13b
a1b1
a155
e13c
e1a5
e11e
ef2d
d4c7
d4d9
d44d
5d91
5dcf
5d07
bd96
787e
ddba
dd17
9dac
d825
d8a1
d86a
d8f1
fd73
a439
a4a0
8474
840a
8458
8409
841c
945f
f403
f42f
f46b
c491
c409
c4df
c445
b8d8
9863
987e
989a
9819
98e5
98fa
a8b1
f851
f8f6
8872
88eb
881d
88f0
e8a7
3901
39ea
3974
afaa
bbea
bb2c
bb3d
bfc8
bf91
bfae
bfc6
9f26
9f8f
9fd3
7f90
8fa1
dfc5
dfd7
72b4
72be
ea98
eab0
ea99
4eba
5a04
6a03
6ab5
62ad
6b2c
7e77
59d4
492e
492c
ba3d
aae8
aa5f
8a0b
fa92
992c
1a70
0ee0
5ee0
aefe
aeb5
abea
ee7a
9e5c
1e9d
797e
43e2
53ea
8e2a
8e5b
b0ef
b02b
60c4
90e7
f0e4
a06e
a094
2b95
fcba
eb6d
ebc1
9b63
9b6f
9be1
fb0a
fb35
cb2f
cbf1
b97c
a52c
3b62
3b32
0b31
0b76
8b03
8b2c
8b3c
5c9c
b5ac
9560
7cc2
7cb2
3c2a
ec75
15de
15c8
8931
d9c2
d99c
a9c1
f532
f584
f59f
f96f
9370
83d4
83f5
837e
839e
f301
a291
f2b4
f27b
c22c
c266
9794
27ed
279e
f76f
e772
e7cf
1783
178f
56bd
0c02
2146
d040
1019
8005
b14f
5ad5
7015
2ad1
a14f
769d
c030
80da
4012
d21a
86fe
a5d5
36fd
7ad7
b69c
caca
469d
5316
6c10
30d4
301b
9036
9031
0b1e
a71b
6316
c01e
3e1a
7e19
9ff8
ccd9
9f16
9f11
9a19
c91a
231a
40d7
82f7
37f8
6c89
6c8f
9683
de1e
1e17
0312
d7d5
f7fe
f7fc
f7f2
c389
3c8c
a28e
b21b
4006
368a
f31d
1c8d
72e2
b28d
cc8b
1ded
10a3
8c57
fb15
5bdd
c787
a3db
0e40
0e4f
dde5
f288
87d6
934a
6b89
bbb5
0722
edee
b3b5
17f0
17f3
a2e7
a2e9
3b8e
fbb6
0bdc
5211
5ba8
c3bc
3bda
85d1
85d5
10bd
f55d
772d
fc44
7c49
43dc
9bda
93b2
fce1
0259
c356
a946
e749
9644
e64f
fd4c
b943
dd4c
1c4d
0c4a
c309
3ce4
e302
f308
e3fb
ca4d
ef44
a0f2
073b
0619
0206
06a5
09d5
09d3
09f2
09eb
03ac
1ec4
1610
16cf
120e
19b2
1e0e
1b56
1eee
1cab
2734
261a
26e8
36c8
3209
39a5
3327
4614
4efc
4329
5c26
561a
5629
59bf
56bc
523e
52b6
55c6
6b5b
6cf3
6a29
763b
720a
7bf7
7eb3
8619
8b26
89fb
89d5
8c29
8bf2
90b5
920d
950b
973f
97a4
9e83
9578
a73d
a234
a23b
b67b
b57c
c2ab
c23b
cfe5
caf9
d9f0
d50b
d9a5
d2a1
e733
e660
e506
e90e
e9a7
ee0f
e929
eaaa
fecc
f80a
fbfc
fee5
faf8
fae5
3181
692e
690c
1724
65ed
6598
65b9
65f8
28b2
0a74
32ac
0dba
0def
0dfa
2f77
2fe0
2f81
2fd8
3a10
2527
25f0
25f8
67ff
67d8
2e3c
61e1
6108
610e
4801
4812
040f
18ed
18a1
74c2
7488
5082
dbd2
ac34
acd7
ac4d
30ee
38ec
117a
119c
11c7
4fed
4f0e
45da
44c5
449a
44c7
4413
413e
415b
41e5
cd31
cd4e
34e9
34f0
2374
2371
026c
2c99
2c45
6eea
6e3f
6efd
127b
1211
7025
2aa5
64ea
647f
6402
b4ed
b4a6
108e
46c2
46a5
46d5
087b
802a
13bc
13d1
35bf
358c
2475
246e
247f
2428
24c1
0fa1
0f8d
0f16
3d9c
3d17
3dd7
c8e5
33ff
6f90
6f84
ed96
edf9
ad61
733a
7398
51a4
6d29
6d19
3f24
21ae
21c6
719f
71a8
71aa
711e
5fa6
5fdd
d1c3
8d7f
8d93
8d5f
8d0f
9103
8136
8126
818e
c1ad
a152
a1eb
e15a
e13e
ef68
efa3
5d9b
5d36
5dc6
bd6e
dd0a
dd04
ddc7
9d98
7d9a
7d79
d8a0
d88c
fdf5
fd5a
fd52
a4c4
a44e
8470
8421
84ee
84e7
942a
94aa
94c6
944d
e44a
f4ae
f48b
f48e
f4d5
c430
c42f
c4f1
b85a
98f3
98f2
98f0
37c0
f82a
f893
f82b
f819
88d2
cf99
e879
e88d
e8a5
afa8
af0c
bb92
bf7a
9f2d
9fca
7f2f
7f14
7f39
7fb7
8f66
8f96
8fab
727d
1c9f
ea7b
4e60
0970
09b1
5a78
5a98
55f5
6cec
6cbe
629d
597c
de75
ce9a
ba92
babe
0c01
0cb4
333b
9a77
fa30
fa6d
1a6f
ca77
5e58
be2f
be33
ae60
ab2e
ab90
ee74
9e2f
1e91
433a
43f5
537e
8e31
8e6d
8eb2
3e62
3e2a
b066
1663
6073
5bce
907d
fcc2
ebb4
eb3f
eb9b
fb6b
cbed
cbcf
b9c5
b9c0
a567
0b0b
8b01
1b20
1b0a
5cec
b592
b566
b5b2
c5ac
c567
c573
9532
95fe
7c75
15d4
8979
296f
2935
f592
f5b2
c991
e9c5
e977
f994
a379
939c
c392
c393
b3ed
b3e1
e374
f32e
f3c8
a221
f214
c2bd
c29c
9662
f714
b663
d0d0
800a
6698
f84a
dcd7
8142
134c
d68b
7696
d4bf
4ad0
8acf
d51b
bc1d
6039
e0df
ce17
0e10
b912
5313
30d5
1552
a34c
5382
f013
bb1c
6ffd
e032
5515
a212
9918
06fd
ab86
ab89
be17
c713
c71c
9212
ef16
ee19
df1d
3ffa
e91d
c2f5
a68c
5bbf
7ff1
4217
4219
421c
abb8
c4b8
82c7
8683
72d8
72d9
4382
3cdb
9001
ebb8
50a1
52ef
e31d
ab13
72ef
9512
3387
1a15
9b83
2bd0
e00a
fe1b
878e
82e8
5c51
f0bf
8deb
5cd5
ae4d
53da
ecd1
92e4
6de2
bb8b
83b2
a788
a784
3bdb
c083
b25b
43db
872c
8282
8581
2ba0
b351
e643
7a46
0ccf
fa4f
8cca
9304
9940
60f6
2958
33f9
a0f9
90fd
f33e
c33e
0637
0635
0612
0ec4
0ed7
07a8
0bfd
02a0
16b8
1b06
1985
19af
29b5
27b2
27a6
3926
3628
33a9
3613
36c4
3799
450c
4ee3
4322
5e26
5806
5927
56df
5504
59e0
5cfd
5a26
5af3
55b7
7616
77af
76d6
777a
7a26
8ec9
89db
8e04
8508
8987
87ca
85cb
83e6
977b
9502
9b07
97be
a61e
a610
a6cb
a9dc
a2a7
a507
aab9
b20d
bbfa
b2ae
b526
c676
c638
c616
c61d
cea7
c6ae
ce82
cb0c
d632
d6d8
de04
de87
efe2
e614
e626
e3aa
e9a9
e6da
e6aa
ebfc
eb52
efe4
eaae
e3ee
f6a7
f6c9
f797
f57e
fc05
fa0e
69f7
698c
698a
69fb
69f6
6916
20f4
286c
2871
28c0
28cb
28d5
0ac1
0acb
0401
322b
0dd2
2fec
2feb
3ac5
3ac7
25ed
258f
6786
67e5
2e7c
612d
611d
48ae
313e
18c2
1841
63f4
7491
747e
74ef
7419
74fc
7416
50bd
50c9
dbd9
db49
acb8
acda
ac1a
daac
da2e
da92
da38
daa4
dabf
30b3
38bc
381d
1130
1154
11f4
119a
11e1
11f7
757a
75ab
758a
44eb
347f
343c
23f2
2341
2c24
2c1d
2c8e
6e27
6eb7
1214
128a
12b6
1241
7023
708d
2a55
2a6a
2aa8
2a17
64d1
64f6
b434
b4ce
b43e
b452
b4ae
b487
1078
10e2
46b1
46bf
0830
08b8
8093
13e9
4a95
359c
0f7f
0f68
2d95
2dfb
c8fc
6fba
ed29
eddd
ad25
7301
77ea
b1f2
5182
58c2
6db9
1d33
21cc
7199
5f61
5f3d
5f9e
d118
8d2e
9159
91c7
9105
8199
81ae
c121
c159
a1f5
a1bc
a1d8
e1b8
e15e
e18b
e186
ef71
d489
d4a6
5d92
78bc
78b2
7813
dd70
dd0f
ddcb
ddf3
9d6f
9dbf
9d52
7d3a
7df1
7dc0
7dbe
7d08
7dab
7ddc
7d8e
7d1e
d82d
fd64
a4ca
a437
a41e
a411
84fe
9451
e431
e461
e421
e4e6
e40c
f431
1f69
1f90
b827
9826
a814
a818
f886
889c
88e9
cf2d
af54
af87
bb68
bfd5
9f90
7f37
7f02
8f07
df3f
cc31
cc6f
cc34
0951
55a4
6cb4
62b2
7ef4
59c8
7b35
7b3b
d24b
d260
de0d
ba56
0c3b
aa33
aae2
9a23
8ae0
993f
9938
99e4
7a5f
1aac
1a7d
ca6e
ca97
66ac
ab3e
fefe
fee8
fe3e
1e69
1e6c
43ce
3e78
b026
dc63
dcf1
d521
6022
f0c8
a09d
a0ee
ebe8
9b03
cb72
b9cf
3b0b
3b7e
0b32
8b70
8b6e
1bca
e056
bc2a
bcb4
c5f5
c53b
8cb1
9554
7c2f
3cbd
3c98
3c93
ec32
85ea
8528
07ed
076d
e56c
e53b
894b
8960
897a
d9ec
d962
292c
a99c
f564
f57f
f5ce
f538
c954
e973
f9f4
4225
a303
a331
a37d
c395
c39a
b374
b3de
b37a
e32e
f363
22b2
f27a
927a
c29e
b22c
b2bd
a7ce
9772
976f
8730
870a
c769
c732
10d6
201d
a630
8665
c66d
f663
575c
525e
3540
d035
d849
2ad6
76fe
5f10
5f16
d21b
0692
6b13
603e
a04a
8694
0e18
a0d6
a0d9
82d9
62dc
62d2
155f
50d4
22f2
6ac0
a246
d0ba
d5da
34b7
34b1
d2fa
bb1e
3e16
d716
74b8
92d7
92d1
e6f3
5a13
c6fd
b7f5
fadc
dffb
52fd
eac4
6721
7682
8b15
968d
9689
9288
82c9
22e9
5de0
dc16
dc1f
cf41
8b89
8a8d
f0a3
ca8f
aac8
52eb
f314
2c58
8a12
2bba
10a4
5723
33d8
278d
2289
a7d0
dacb
a3d9
9656
ec8e
6b86
6b82
2de4
2de5
7bdb
a2c6
bce0
8bd8
8bb6
8bbf
5216
408e
f3dc
dc5a
9540
c657
b25d
c64f
a3b3
8f4d
0ce7
9ba4
3b4d
378e
ab46
7a42
ad46
7f45
93fa
930c
433f
eb4a
d5f3
c75d
33f8
95f0
f0f0
b5a7
8336
0fe2
0676
09ee
0929
07ae
1638
163c
19a9
1537
1aa6
262b
26a7
29ee
3ecc
39be
37e1
3ef3
350a
4ec2
4ec8
49bf
49be
4504
47e9
5fe2
59e7
5e83
5cf9
53e5
66d8
6a22
7ef7
7807
8324
8635
8eac
89a6
8997
8ed3
8205
82aa
8efa
8bfd
82a9
8bf3
8529
83e3
96e8
980f
97a5
93a1
9feb
97b3
a33d
a67d
aeaa
aea7
a9a8
ae8d
afe3
aaa5
a3e3
b673
b679
b6d3
b6a9
b7ef
b921
b5c6
c61a
c67e
c3aa
c6c8
cb06
c3ac
c57b
d678
de0f
deeb
d571
e615
e67b
e61f
e613
e9a6
e9b5
e6a9
e6ca
e9fa
e50c
e5c7
f232
fbc9
f9ca
f9f2
fef9
f77d
feb7
f2b9
faf3
3124
69ff
69b6
691b
2024
54b7
54dd
501f
65b3
28da
0af1
0a9c
0a5a
325b
0d51
0d27
0d0c
2f67
2fd4
2fc4
2f39
3aff
3a9a
3a52
2565
25fb
67ec
678e
0355
03e1
0322
2e61
2ef7
2e1c
617a
483c
481f
1852
188b
181e
639f
635f
74ad
74c1
507a
5089
dbc4
ac2f
da39
da2b
3024
3089
4b24
119d
115d
11d9
4f2a
4fb1
4ff3
45d0
758c
75fc
75f0
4498
413b
41fc
4110
4116
cd9d
2386
024c
2cc7
2cb6
6e08
12be
709e
7027
2aad
2a73
2a3b
2a1f
2a45
64ca
b4f2
106e
46ba
460c
0862
1301
1363
139e
3598
2469
0f9f
1696
3dea
3d92
3dbe
687a
68b0
c814
c816
6fea
6fc4
6fa3
ed67
ed51
ed27
edb6
ad77
ad98
b10d
b1ad
b1e0
b1a0
b1e9
5198
515b
6dbc
6d13
1d29
2164
d1c4
d1d6
8d73
8d78
8db1
8da9
9127
91f8
910c
812f
8171
8152
c114
c1c8
c19f
c1e5
a19a
a11c
d411
5dac
5d0e
bd69
bd64
bd19
bd17
789a
dd96
dd85
9d0a
9d33
9d6b
9d8b
7dd0
d8ec
d86c
d8b2
fd1f
84a8
94a0
e459
e48b
e482
e4e5
f43e
1f6f
1f0b
1f6c
1f84
1f37
1fc9
c473
b862
98bc
379a
a8bd
a8e9
a812
f8ed
f8a9
f882
8825
8814
88cf
885c
cf2f
cf8f
e8bd
e87d
e856
e8eb
3935
afd4
af90
af76
afa7
bb3a
bbc4
bb93
bf94
9f6a
7228
cc20
1c6f
ea2e
09f1
6b3f
d076
597e
e62f
de4b
de6c
0c9b
aa9d
aa79
9901
1a7f
1a14
ca3a
0e23
660d
ab58
abc4
9e7e
1e75
43b4
53cc
8e6c
3eec
3e95
3e5f
b051
dcea
1667
5b91
c0ed
a06b
a07d
2b75
fc7e
9b90
9b93
cb6d
b92e
3b65
3b79
8b7a
1b24
1bc0
5c14
b564
b568
b538
8ca1
3c64
3c90
3c7a
ec6e
85cc
076c
079d
07c0
e5e1
8963
d94b
29d4
a920
f53d
42ba
372f
a320
a3c5
9301
9391
c377
4791
b361
b360
f3ea
1714
22bd
f273
c26c
b224
960a
a76e
a76a
b76c
8767
8794
e70d
e7bd
56ad
56ba
0665
0669
86c2
c6b4
d0db
0ffd
12fb
12f2
c141
76fa
c041
d2e3
7693
c038
80d1
969a
401a
cff9
16f0
914f
604e
700f
b01e
4693
aadd
5ace
903e
b2f0
9717
34b4
74bd
92f0
1ff0
2b1d
af1f
0c86
2311
bac8
f342
821f
b311
9216
bcdb
ee15
768b
e0a4
ca13
d2c3
6089
cb1b
a289
091e
834f
5ff2
30af
44ba
93d6
8517
c3db
8a1e
1de1
a2d1
c2e5
e58b
8c51
2287
272d
5bdc
bc5b
f259
3310
331e
3302
bbb1
d556
cb86
ede5
f004
53d8
53d9
9ce3
73be
bb4a
cbd3
9741
f715
0bd8
ce4d
c545
fbdd
77db
40b2
ebd9
73d5
abdc
7723
7ccc
b740
b649
df5c
1bd2
d94a
1ce7
9c5e
ec45
bcca
0b81
9ba3
1ccc
9d45
9e4e
b30e
a35e
c304
4306
430c
ee42
7d45
73fa
f951
f5fb
06ee
061d
09bf
0e05
0bf9
1614
163b
190f
1cfa
2ec0
29d8
262c
27e3
36e4
3ec2
36dc
49d3
450a
5ecf
5eda
5cfc
55eb
6eaf
662a
66aa
6b0e
62a1
7208
7624
7906
[...]
